{"itos": {"0": "<BOS>", "1": "<EOS>", "2": "<PAD>", "3": "\u0000", "4": "\u0001", "5": "\u0002", "6": "\u0003", "7": "\u0004", "8": "\u0005", "9": "\u0006", "10": "\u0007", "11": "\b", "12": "\t", "13": "\n", "14": "\u000b", "15": "\f", "16": "\r", "17": "\u000e", "18": "\u000f", "19": "\u0010", "20": "\u0011", "21": "\u0012", "22": "\u0013", "23": "\u0014", "24": "\u0015", "25": "\u0016", "26": "\u0017", "27": "\u0018", "28": "\u0019", "29": "\u001a", "30": "\u001b", "31": "\u001c", "32": "\u001d", "33": "\u001e", "34": "\u001f", "35": " ", "36": "!", "37": "\"", "38": "#", "39": "$", "40": "%", "41": "&", "42": "'", "43": "(", "44": ")", "45": "*", "46": "+", "47": ",", "48": "-", "49": ".", "50": "/", "51": "0", "52": "1", "53": "2", "54": "3", "55": "4", "56": "5", "57": "6", "58": "7", "59": "8", "60": "9", "61": ":", "62": ";", "63": "<", "64": "=", "65": ">", "66": "?", "67": "@", "68": "A", "69": "B", "70": "C", "71": "D", "72": "E", "73": "F", "74": "G", "75": "H", "76": "I", "77": "J", "78": "K", "79": "L", "80": "M", "81": "N", "82": "O", "83": "P", "84": "Q", "85": "R", "86": "S", "87": "T", "88": "U", "89": "V", "90": "W", "91": "X", "92": "Y", "93": "Z", "94": "[", "95": "\\", "96": "]", "97": "^", "98": "_", "99": "`", "100": "a", "101": "b", "102": "c", "103": "d", "104": "e", "105": "f", "106": "g", "107": "h", "108": "i", "109": "j", "110": "k", "111": "l", "112": "m", "113": "n", "114": "o", "115": "p", "116": "q", "117": "r", "118": "s", "119": "t", "120": "u", "121": "v", "122": "w", "123": "x", "124": "y", "125": "z", "126": "{", "127": "|", "128": "}", "129": "~", "130": "\u007f", "131": "\ufffd", "132": "\ufffd", "133": "\ufffd", "134": "\ufffd", "135": "\ufffd", "136": "\ufffd", "137": "\ufffd", "138": "\ufffd", "139": "\ufffd", "140": "\ufffd", "141": "\ufffd", "142": "\ufffd", "143": "\ufffd", "144": "\ufffd", "145": "\ufffd", "146": "\ufffd", "147": "\ufffd", "148": "\ufffd", "149": "\ufffd", "150": "\ufffd", "151": "\ufffd", "152": "\ufffd", "153": "\ufffd", "154": "\ufffd", "155": "\ufffd", "156": "\ufffd", "157": "\ufffd", "158": "\ufffd", "159": "\ufffd", "160": "\ufffd", "161": "\ufffd", "162": "\ufffd", "163": "\ufffd", "164": "\ufffd", "165": "\ufffd", "166": "\ufffd", "167": "\ufffd", "168": "\ufffd", "169": "\ufffd", "170": "\ufffd", "171": "\ufffd", "172": "\ufffd", "173": "\ufffd", "174": "\ufffd", "175": "\ufffd", "176": "\ufffd", "177": "\ufffd", "178": "\ufffd", "179": "\ufffd", "180": "\ufffd", "181": "\ufffd", "182": "\ufffd", "183": "\ufffd", "184": "\ufffd", "185": "\ufffd", "186": "\ufffd", "187": "\ufffd", "188": "\ufffd", "189": "\ufffd", "190": "\ufffd", "191": "\ufffd", "192": "\ufffd", "193": "\ufffd", "194": "\ufffd", "195": "\ufffd", "196": "\ufffd", "197": "\ufffd", "198": "\ufffd", "199": "\ufffd", "200": "\ufffd", "201": "\ufffd", "202": "\ufffd", "203": "\ufffd", "204": "\ufffd", "205": "\ufffd", "206": "\ufffd", "207": "\ufffd", "208": "\ufffd", "209": "\ufffd", "210": "\ufffd", "211": "\ufffd", "212": "\ufffd", "213": "\ufffd", "214": "\ufffd", "215": "\ufffd", "216": "\ufffd", "217": "\ufffd", "218": "\ufffd", "219": "\ufffd", "220": "\ufffd", "221": "\ufffd", "222": "\ufffd", "223": "\ufffd", "224": "\ufffd", "225": "\ufffd", "226": "\ufffd", "227": "\ufffd", "228": "\ufffd", "229": "\ufffd", "230": "\ufffd", "231": "\ufffd", "232": "\ufffd", "233": "\ufffd", "234": "\ufffd", "235": "\ufffd", "236": "\ufffd", "237": "\ufffd", "238": "\ufffd", "239": "\ufffd", "240": "\ufffd", "241": "\ufffd", "242": "\ufffd", "243": "\ufffd", "244": "\ufffd", "245": "\ufffd", "246": "\ufffd", "247": "\ufffd", "248": "\ufffd", "249": "\ufffd", "250": "\ufffd", "251": "\ufffd", "252": "\ufffd", "253": "\ufffd", "254": "\ufffd", "255": "\ufffd", "256": "\ufffd", "257": "\ufffd", "258": "\ufffd", "259": "  ", "260": "\ufffd\ufffd", "261": "    ", "262": ", ", "263": "n ", "264": "\n    ", "265": "\ufffd\ufffd", "266": "re", "267": "o ", "268": "al", "269": "ut", "270": ": ", "271": "\ufffd\ufffd\ufffd", "272": "\ufffd\ufffd\ufffd\ufffd\ufffd", "273": ":\n    ", "274": "in", "275": "e ", "276": "_f", "277": "ik", "278": "ur", "279": "un", "280": "f ", "281": "t(", "282": "um", "283": "ret", "284": "retur", "285": "return ", "286": "rin", "287": "= ", "288": "):\n    ", "289": "n(", "290": "er", "291": "t ", "292": "unc", "293": "io", "294": "put", "295": "de", "296": "num", "297": "_fn(", "298": "tio", "299": "tion ", "300": "a ", "301": "k ", "302": "o j", "303": "unction ", "304": " o", "305": "def ", "306": "\n\n", "307": "prin", "308": "print(", "309": "))", "310": "))  ", "311": "))  #", "312": "))  # o", "313": "))  # out", "314": "))  # output", "315": "\ufffd\ufffd\ufffd", "316": "\ufffd\ufffd\ufffd\ufffd\ufffd\ufffd\ufffd\ufffd", "317": "\ufffd\ufffd\ufffd\ufffd\ufffd\ufffd\ufffd\ufffd\ufffd", "318": "\ufffd\ufffd\ufffd\ufffd\ufffd\ufffd\ufffd\ufffd\ufffd\ufffd\ufffd", "319": "\ufffd\ufffd\ufffd\ufffd\ufffd\ufffd\ufffd\ufffd\ufffd\ufffd\ufffd\ufffd", "320": "\ufffd\ufffd\ufffd\ufffd\ufffd\ufffd", "321": "\ufffd\ufffd\ufffd\ufffd\ufffd\ufffd: ", "322": "lik", "323": "likh", "324": "likho j", "325": ".\n", "326": ".\n\ufffd\ufffd", "327": ".\n\ufffd\ufffd\ufffd", "328": ".\n\ufffd\ufffd\ufffd\ufffd\ufffd", "329": ".\n\ufffd\ufffd\ufffd\ufffd\ufffd\ufffd", "330": ".\n\ufffd\ufffd\ufffd\ufffd\ufffd\ufffd\ufffd\ufffd", "331": ".\n\ufffd\ufffd\ufffd\ufffd\ufffd\ufffd\ufffd\ufffd\ufffd", "332": ".\n\ufffd\ufffd\ufffd\ufffd\ufffd\ufffd\ufffd\ufffd\ufffd:", "333": "likho jo ", "334": "\ndef ", "335": "\n\nprint(", "336": "function ", "337": "\ufffd\ufffd\ufffd\ufffd\ufffd\ufffd: E", "338": "\ufffd\ufffd\ufffd\ufffd\ufffd\ufffd: Ek ", "339": "or", "340": ", 1", "341": "val", "342": "se", "343": " k", "344": "st", "345": ":\n        ", "346": "ul", "347": "res", "348": "resul", "349": "\n    return ", "350": ", 2", "351": "in ", "352": "i ", "353": ", 3", "354": "ma", "355": "nik", "356": "nikal", "357": "th", "358": "to", "359": "_fn ", "360": "are", "361": "numb", "362": "number", "363": "co", "364": " = ", "365": "x ", "366": "ch", "367": "li", "368": "nikale", "369": "ue", "370": "cal", "371": "calc", "372": "\n    f", "373": "\n    for", "374": "\n    for ", "375": "ba", "376": "if ", "377": "me ", "378": "s ", "379": "wor", "380": "ta", "381": "_val", "382": "* ", "383": "result", "384": "tot", "385": "total", "386": "ol", "387": "ha", "388": "_i", "389": "ge", "390": "e k", "391": " ka ", "392": "st ", "393": ") ", "394": "result ", "395": "nd", "396": "likho jo li", "397": "st [", "398": " me ", "399": ", 4", "400": "sum", "401": "te", "402": "se ", "403": "le", "404": "do", "405": "he", "406": "an", "407": "aur", "408": "aur ", "409": "x in ", "410": "ar", "411": "wer", "412": "_calc", "413": "_it(", "414": "value", "415": ", 5", "416": "si", "417": " aur ", "418": "na", "419": "word", "420": "sa", "421": " nikale", "422": "math", "423": "numbers ", "424": "strin", "425": "string", "426": "kare", "427": "0, 1", "428": "33", "429": "get", "430": " in ", "431": "tool", "432": ", 8", "433": "seq", "434": "pe", "435": " likho jo ", "436": "- ", "437": "mp", "438": "mple", "439": "see", "440": "s):\n    ", "441": "ir", "442": "min", "443": "[]", "444": ": [", "445": " * ", "446": " ko ", "447": "ve", "448": ", 7", "449": "ro", "450": ", 9", "451": "hei", "452": ": 1", "453": "ver", "454": "ck", "455": "_calc(", "456": "+ ", "457": "result = ", "458": ", 6", "459": "+= ", "460": "\n        ", "461": "ind", "462": "bata", "463": "_fn([", "464": "min_val", "465": "do ", "466": "seco", "467": "second", "468": ", y", "469": "% ", "470": "= 0", "471": "ho", "472": "0]", "473": "66", "474": "):\n    if ", "475": "coun", "476": "ap", "477": "hi", "478": "ower", "479": "saare", "480": "saare ", "481": "fa", "482": ".ap", "483": ".appe", "484": ".append", "485": ".append(", "486": "id", "487": "max", "488": "max_val", "489": "hai", "490": ")\n\nprint(", "491": "fir", "492": "ce", "493": "string ", "494": " ke ", "495": "work", "496": "le k", "497": "che", "498": "numbers", "499": "Fal", "500": "False", "501": "-1", "502": "string '", "503": "wid", "504": "width", "505": "heig", "506": "heigh", "507": "s:\n        ", "508": "per", "509": "32", "510": "<= ", "511": "d(", "512": "it", "513": "ye ", "514": "kit", "515": "kitn", "516": "xt", "517": "if x ", "518": "/ ", "519": "a na", "520": "x, y", "521": "):\n        ", "522": "do numbers ", "523": "Tr", "524": "True", "525": "el", "526": "t kare", "527": "ran", "528": "range", "529": "range(", "530": "== 0", "531": "do_", "532": "do_math", "533": "_it ", "534": "10", "535": "2 ", "536": "ne", "537": "nee", "538": "need", "539": "seen", "540": "us", "541": "11", "542": "ra", "543": "calc_", "544": "calc_total", "545": "simple", "546": "first", "547": "da", "548": "hai ", "549": "hai y", "550": "hai ya na", "551": "hai ya nahi", "552": "14", "553": "e ki ", "554": "com", "555": "comput", "556": "the", "557": "the_", "558": "the_an", "559": "the_ans", "560": "the_answer", "561": "data", "562": "] me ", "563": "arr", "564": "my", "565": "my_f", "566": "my_func", "567": "_fn('", "568": "hel", "569": "x, y = ", "570": "ta ", "571": "mak", "572": "make", "573": ": 2", "574": " ke saare ", "575": "15", "576": " p", "577": "math_", "578": "math_tool", "579": "words", "580": "check", "581": "2:\n        ", "582": "fast", "583": ".append(x", "584": ".append(x)", "585": "1:\n        ", "586": "result = []", "587": "sum(", "588": "batae", "589": "test", "590": "as", "591": "get_val", "592": "helper", "593": ": 4", "594": "12", "595": "len(", "596": "ite", "597": "item", "598": "] ke saare ", "599": "pro", "600": "proce", "601": "proces", "602": "sum ", "603": "list", "604": "eas", "605": "easy", "606": "le ka ", "607": "le ka are", "608": "le ka area ", "609": "nikale, ", "610": ": [0, 1", "611": "sol", "612": "solve", "613": "' ko ", "614": ". ", "615": "height", "616": "numbers ka ", "617": "le ", "618": "pli", "619": ": 5", "620": "' me ", "621": "' me kitn", "622": "' me kitne ", "623": "s ha", "624": "s hain ", "625": "s hain ye ", "626": "\n    for _", "627": " in range(", "628": "find", "629": "num_", "630": "eve", "631": "even ", "632": "% 2 ", "633": "% 2 == 0", "634": "str", "635": "run", "636": "ka ", "637": "ther", "638": "[:", "639": "[::", "640": "[::-1", "641": "[::-1]", "642": "con", "643": "conver", "644": "convert kare", "645": "ord(", "646": "ord(ch", "647": "ord(ch) ", "648": "    result ", "649": "+= ch", "650": "other", "651": "av", "652": "avg", "653": "return (", "654": " ho", "655": "min_val = ", "656": "main", "657": "do_math(", "658": "se ba", "659": "se bad", "660": "se bada ", "661": "> ", "662": "3333", "663": ": 3", "664": "tar", "665": "seen[", "666": "\n    for ch", "667": "par", "668": "wh", "669": "whol", "670": "whole", "671": "lst", "672": "5) ", "673": "5) + ", "674": "nums):\n    ", "675": " ki ", "676": "calc_total(", "677": "sab", "678": "[0]", "679": "[0]\n    for ", "680": "qu", "681": "qui", "682": "quick", "683": ". E", "684": ". Ex", "685": ". Exa", "686": ". Example", "687": "count ", "688": "< ", "689": "    return ", "690": "basi", "691": "basic", "692": "str1", "693": ".l", "694": ".lower", "695": ".lower(", "696": "number ", "697": "0, 2", "698": "base", "699": "ex", "700": "exp", "701": "compute", "702": "compute(", "703": "0, 3", "704": "lin", "705": "get_", "706": "the_answer(", "707": "ai", "708": "batae ki ", "709": "max_val = ", "710": "iy", "711": "my_func(", "712": " kare", "713": ", 17", "714": ", 16", "715": "] me sab", "716": "di", "717": "ue ", "718": ", 14", "719": "num1", "720": "nikale ", "721": ", 19", "722": "make_it(", "723": " likho jo li", "724": "nc", "725": "6666", "726": ": True", "727": "math_tool(", "728": ", 13", "729": "line", "730": "fast_calc(", "731": "x * ", "732": "val1", "733": ", 34", "734": "txt", "735": "text", "736": "do_it(", "737": "get_value", "738": "get_value(", "739": ": 7", "740": "9 ", "741": "i, ", "742": "din", "743": "ding", "744": "nums", "745": ", 12", "746": "simple_fn(", "747": "process", "748": "process(", "749": "7 ", "750": "coding", "751": "num2", "752": "result_fn(", "753": "aise ", "754": "solve_it(", "755": "3.", "756": "0.", "757": "8, 2", "758": "find_it(", "759": "num_work", "760": "num_work(", "761": "run_calc(", "762": "ah", "763": "x + ", "764": "x + y", "765": "list1", "766": ", 36", "767": "tool_fn(", "768": "total_fn(", "769": "cc", "770": "val2", "771": "check_fn(", "772": "dh", "773": "x, y = y", "774": "x, y = y, ", "775": "sum_fn(", "776": "tor", "777": "return kare", "778": ", 1, 2", "779": "13", "780": "test_fn(", "781": "2)", "782": " = 0", "783": "- 1", "784": "quick_calc(", "785": "sum nikale ", "786": "sum nikale b", "787": "ina ", "788": "ina sum(", "789": "ina sum() ", "790": "ina sum() us", "791": "e kiy", "792": "e kiye", "793": "total = 0", "794": "total ", "795": "total += ", "796": "total += x", "797": ".s", "798": ", 11", "799": " ka fa", "800": " ka fac", "801": " ka factor", "802": " ka factori", "803": "al nikale", "804": "return 1", "805": "- 1)\n\nprint(", "806": "Fi", "807": "Fib", "808": "Fibo", "809": "Fibona", "810": "Fibonacc", "811": "Fibonacci ", "812": "seque", "813": "sequenc", "814": "sequence k", "815": "sequence ke ", "816": "peh", "817": "pehle ", "818": "):\n    seq", "819": " = []", "820": " = []\n    ", "821": "x, y = 0, 1", "822": "seq\n\nprint(", "823": "get_resul", "824": "get_result(", "825": ": 6", "826": "und(", "827": "words = ", "828": ".spli", "829": ".split(", "830": ".split()", "831": "len(words", "832": "numbers ko ", "833": "dou", "834": "doub", "835": "double k", "836": "double kare", "837": ".append(x * ", "838": "-2", "839": "' ko ul", "840": "' ko ulta ", "841": "' ko ulta (", "842": "rever", "843": "reverse", "844": "reverse)", "845": "8]", "846": "no", "847": "value_fn(", "848": "easy_fn(", "849": "calc_fn(", "850": "AS", "851": "yth", "852": "ytho", "853": "cir", "854": "circ", "855": "nikale, ra", "856": "nikale, radi", "857": "us ", "858": "return 3.", "859": "return 3.14", "860": "159", "861": "159 * ", "862": "\n\nprint(ro", "863": ", 26", "864": " se ", "865": " se saare ", "866": "    result", "867": "is", "868": ": False", "869": "power", "870": ", 21", "871": ", 15", "872": " me se bada ", "873": "second_fn(", "874": "tan", "875": ", 35", "876": "helper_fn(", "877": "st [2", "878": "rec", "879": "rectan", "880": "rectang", "881": "nikale, j", "882": "nikale, jis", "883": "ka width", "884": "ka width ", "885": " aur heigh", "886": " aur height ", "887": "width, ", "888": "return width", "889": " * height", "890": "100", "891": " de", "892": ", 24", "893": "st [3", "894": " ka a", "895": " ka aver", "896": " ka avera", "897": " ka averag", "898": " ka average ", "899": "not ", "900": "return 0", "901": ") / ", "902": ") / len(", "903": "avg_fn(", "904": "pytho", "905": "gre", "906": "gree ", "907": "gree C", "908": "gree Cel", "909": "gree Celsi", "910": "gree Celsius", "911": " ko F", "912": " ko Fah", "913": " ko Fahre", "914": " ko Fahren", "915": "heit ", "916": "heit me ", "917": "c):\n    ", "918": "return (c", "919": "return (c * ", "920": "9 / ", "921": "9 / 5) + ", "922": "9 / 5) + 32", "923": "), 2", "924": "Function ", "925": ", 1, 2, 3", "926": ", 22", "927": "32)", "928": "num_fn(", "929": "' ko U", "930": "' ko UP", "931": "' ko UPP", "932": "' ko UPPE", "933": "' ko UPPER", "934": "' ko UPPERC", "935": "ASE", "936": "ASE me ", "937": "result = \"", "938": "result = \"\"", "939": "if 9", "940": "if 97 ", "941": "if 97 <= ", "942": "ord(ch) <= ", "943": "+= chr", "944": "+= chr(", "945": "ord(ch) - ", "946": "32)\n        ", "947": "else", "948": "other_fn(", "949": ", 32", "950": "basic_fn(", "951": ": 9", "952": "ow", "953": ", 23", "954": ", 27", "955": "und", "956": "16", "957": "se ch", "958": "se chho", "959": "se chhota ", "960": "if x < ", "961": "min_val = x", "962": ": 8", "963": "chec", "964": "check ", "965": "check kare", "966": " ke li", "967": " ke liye ", "968": "dhund", "969": "dhunde ", "970": "dhunde j", "971": "dhunde jin", "972": "ka sum ", "973": ", aur ", "974": ", aur un", "975": ", aur unk", "976": ", aur unke ", "977": "inde", "978": "index", "979": "indexe", "980": "indexes ", "981": "nums, ", "982": "nums, tar", "983": "nums, target", "984": "):\n    see", "985": "):\n    seen ", "986": "= {", "987": "= {}", "988": "\n    for i, ", "989": "x in e", "990": "x in enum", "991": "x in enumer", "992": "x in enumera", "993": "te(", "994": "    need", "995": "    need = ", "996": "targe", "997": "target ", "998": "target - ", "999": "target - x", "1000": "\n        if ", "1001": "need in ", "1002": "need in seen", "1003": "    return [", "1004": "seen[need", "1005": "seen[need]", "1006": "seen[need], ", "1007": "i]", "1008": "i]\n        ", "1009": "seen[x", "1010": "seen[x]", "1011": "seen[x] = ", "1012": "seen[x] = i", "1013": "[]\n\nprint(", "1014": ": [0, 1]", "1015": "work_fn(", "1016": "main_fn(", "1017": "u\"", "1018": "20", "1019": "hind", "1020": "28", "1021": "nikale ki ", "1022": " ka kitn", "1023": " ka kitna ", "1024": "perce", "1025": "percen", "1026": "percent ", "1027": "percent hai", "1028": "part", "1029": "part, ", "1030": "part, whole", "1031": "return (par", "1032": "t / ", "1033": "t / whole", "1034": "t / whole) ", "1035": "* 100", "1036": "i j", "1037": " ka m", "1038": " ka mul", "1039": " ka mult", "1040": " ka multi", "1041": " ka multipli", "1042": "ca", "1043": "cation ", "1044": "2, ", "1045": " ka G", "1046": " ka GC", "1047": " ka GCD", "1048": "):\n    w", "1049": "):\n    whi", "1050": "value ", "1051": "' me kitne v", "1052": "owel", "1053": "count kare", "1054": "count = 0", "1055": "if ch", "1056": "if ch.lower(", "1057": ") in ", "1058": ") in \"", "1059": ") in \"a", "1060": ") in \"ae", "1061": ") in \"aeio", "1062": ") in \"aeiou\"", "1063": "    count ", "1064": "+= 1", "1065": "count", "1066": "] me aise ", "1067": ", 37", "1068": ", 1, 2, 3, 5", "1069": "base ", "1070": "first_fn(", "1071": "cch", "1072": ", 18", "1073": "simple_fn ", "1074": " ka power", "1075": " ka power ", "1076": " nikale, y", "1077": " nikale, ya", "1078": "ani ", "1079": "base, ", "1080": "base, exp", "1081": "result = 1", "1082": "result *", "1083": "result *= ", "1084": "19", "1085": "] se saare ", "1086": ", 29", "1087": "items):\n    ", "1088": "batae ki '", "1089": "' p", "1090": "' pal", "1091": "' palind", "1092": "' palindro", "1093": ".lower()", "1094": "== ", "1095": "if x > ", "1096": "max_val = x", "1097": "num ", "1098": "compute ", "1099": "likho jo '", "1100": "total_fn ", "1101": "ri", "1102": "rime ", "1103": "rime number ", "1104": "return False", "1105": "\n    for i ", "1106": "in range(", "1107": "in range(2, ", "1108": "int(", "1109": "** ", "1110": "** 0.", "1111": "** 0.5) + ", "1112": "** 0.5) + 1", "1113": "% i ", "1114": "% i == 0", "1115": "True\n\nprint(", "1116": "result_fn ", "1117": " - ", "1118": "25", "1119": "tool_fn ", "1120": ", 33", "1121": "arr):\n    ", "1122": "x in arr", "1123": ", 25", "1124": "x in value", "1125": "17", "1126": "values", "1127": "acch", "1128": "data):\n    ", "1129": "x in data", "1130": "1111", "1131": "x in num", "1132": "pa", "1133": "kar", "1134": "str1):\n    ", "1135": "u, ", "1136": "u, v", "1137": " hai", "1138": "make_it ", "1139": "check_fn ", "1140": " numbers ", "1141": "te ", "1142": "x in item", "1143": "fast_calc", "1144": "value_fn ", "1145": "sum_fn ", "1146": "\ndef sum_fn(", "1147": "get_value ", "1148": "21", "1149": "helper_fn ", "1150": "do_it ", "1151": "\ndef do_it(", "1152": "test_fn ", "1153": "calc_fn ", "1154": "second_fn ", "1155": "list1):\n    ", "1156": "x in list", "1157": "line):\n    ", "1158": "process ", "1159": "18", "1160": "text):\n    ", "1161": "first, ", "1162": "24", "1163": "python", "1164": ", 31", "1165": "solve_it ", "1166": "0, 4", "1167": "rah", "1168": "hu", "1169": "26", "1170": "num1, ", "1171": "num1, num2", "1172": "easy_fn ", "1173": "a, ", "1174": "a, b", "1175": "val ", "1176": "find_it ", "1177": "num_wor", "1178": "num_work ", "1179": "word):\n    ", "1180": "main ", "1181": "seek", "1182": "seekh", "1183": "seekh ", "1184": "seekh rah", "1185": "seekh raha ", "1186": "first ", "1187": "hai'", "1188": " power", "1189": "num_fn ", "1190": "\ndef num_fn(", "1191": "txt):\n    ", "1192": ", 39", "1193": "al ", "1194": "p, ", "1195": "p, q", "1196": ", 38", "1197": "function run", "1198": "29", "1199": "other_fn ", "1200": "avg_fn ", "1201": "\ndef avg_fn(", "1202": "kal ", "1203": "kal ba", "1204": "kal baa", "1205": "kal baaz", "1206": "kal baazi j", "1207": "kal baazi ja", "1208": "ung", "1209": "unga", "1210": "accha ", "1211": "33333333", "1212": "val1, ", "1213": "val1, val2", "1214": "od", "1215": "work_fn ", "1216": "main_fn ", "1217": "00", "1218": "st [4", "1219": "57", "1220": "n, ", "1221": "n, m", "1222": "quick_calc", "1223": "likho jo do ", "1224": "odkar", "1225": "odkar ", "1226": "am", "1227": "basic_fn ", "1228": "lst):\n    ", "1229": "x in lst", "1230": ": -", "1231": ".0", "1232": "):\n    if a ", "1233": "27", "1234": "first_fn ", "1235": "get_result ", "1236": ", 8, 13", "1237": "minus", "1238": "minus kare", "1239": ": [3", "1240": "66666666", "1241": "ud", "1242": "udio", "1243": "37", "1244": "54", "1245": ", 97", "1246": ", 28", "1247": "ya", "1248": ", 30, 3", "1249": "8.", "1250": ", 48", "1251": "i, j", "1252": "40", "1253": "DI", "1254": "st [7", "1255": ", 72", "1256": "j\n\nprint(", "1257": "22", "1258": "aj", "1259": " % ", "1260": "return u", "1261": "v\n\nprint(", "1262": "i * ", "1263": "cha", "1264": "mast", "1265": "sum nikale", "1266": "sum nikale, ", "1267": "jaise ", "1268": "main coding", "1269": "main coding ", "1270": ", 20, 2", "1271": "return n ", "1272": ", 8]", "1273": "hindi", "1274": "4]", "1275": "hindi ", "1276": "dost", "1277": "):\n    if i ", "1278": ", 67", "1279": "return val1", "1280": "val2\n\nprint(", "1281": "23", "1282": "b\n\nprint(", "1283": "st [6", "1284": "a * ", "1285": "items", "1286": "_fn([3", "1287": ", 10]", "1288": " > ", "1289": ", 43", "1290": "namast", "1291": ", 20", "1292": "if not ", "1293": ", 59", "1294": ", 10", "1295": "studio", "1296": "aaj", "1297": "aaj ", "1298": "aaj accha ", "1299": "aaj accha d", "1300": ", 41", "1301": "hindi me ", "1302": "coding k", "1303": "coding kar", "1304": "te ho", "1305": "xt ", "1306": "dif", "1307": "diff", "1308": "diffe", "1309": "differe", "1310": "differenc", "1311": "difference ", "1312": "nikale (", "1313": "_fn([4", "1314": "return num1", "1315": "num2\n\nprint(", "1316": ", 34]", "1317": "return p", "1318": "q\n\nprint(", "1319": ", 46", "1320": "aya", "1321": ": 16", "1322": "m\n\nprint(", "1323": "bha", "1324": "bhara", "1325": "st [5", "1326": "st [8", "1327": " aur 3", "1328": "u, v):\n    ", "1329": ": 11", "1330": "2]", "1331": ", 51", "1332": "chai ", "1333": "chai p", "1334": "chai piy", "1335": "chai piyo", "1336": "2.", "1337": "):\n    if x ", "1338": "pad", "1339": "i, j):\n    ", "1340": "[3", "1341": " + ", "1342": "st [9", "1343": "str1[::-1]", "1344": "string[::-1]", "1345": ", 38]", "1346": ", 45", "1347": " minus kare", "1348": ": 14", "1349": ", 56", "1350": ", 95", "1351": ": 24", "1352": "python'", "1353": "st [1", "1354": ", 47", "1355": "41", "1356": "80", "1357": ", 89", "1358": " me se ", "1359": "hu'", "1360": "b:\n        ", "1361": " == ", "1362": "likho jo 3", "1363": "namaste", "1364": "chal", "1365": "chalo ", "1366": "chalo pa", "1367": "chalo padh", "1368": ": 40", "1369": "unga'", "1370": ", 8, 13, 21", "1371": "return i ", "1372": ", 73", "1373": "python ", "1374": "python k", "1375": "python ki ", "1376": "333333333333", "1377": "n, m):\n    ", "1378": "n):\n    ", "1379": "42", "1380": "naam", "1381": "naam ka ", "1382": " ko j", "1383": " ko jodkar ", "1384": ", 75", "1385": "8, 7", "1386": "p, q):\n    ", "1387": "x, y):\n    ", "1388": "ST", "1389": ", 63", "1390": "text[::-1]", "1391": "\n\nprint(tool", "1392": "st [15", "1393": "jodkar ", "1394": ". Function ", "1395": ". Function k", "1396": "a naam", "1397": ": 32", "1398": "number * ", "1399": ", 14]", "1400": "[7", "1401": "9 aur ", "1402": ".8", "1403": ". Example: 2", "1404": "bharat ", "1405": "bharat ma", "1406": "bharat mata ", "1407": "ki j", "1408": "ki jai", "1409": "txt ", "1410": "num * ", "1411": "n * ", "1412": ": 15", "1413": ", -1", "1414": " in word", "1415": "a naam ", "1416": ", -2", "1417": ": 10", "1418": ", 55", "1419": ", 94", "1420": "35", "1421": ": 50", "1422": ", 44", "1423": "666666666666", "1424": ", 16]", "1425": " ka power 4", "1426": " ki 4", "1427": " ki 4 power", "1428": "\n\nprint(calc", "1429": "x):\n    ", "1430": ", 71", "1431": ", 77", "1432": "word[::-1]", "1433": ": -2", "1434": "hell", "1435": "hello ", "1436": "hello wor", "1437": "hello worl", "1438": "hello world", "1439": ", 18, 2", "1440": ", 42", "1441": "\n\nprint(work", "1442": "0.0", "1443": "\n\nprint(main", "1444": ", 10, 1", "1445": "a):\n    ", "1446": "coding'", "1447": "11111111", "1448": "44", "1449": "solve_it([", "1450": ", 36]", "1451": "\n\nprint(easy", "1452": ", 61", "1453": "_fn([8", "1454": ": 20", "1455": "fast_calc([", "1456": " in text", "1457": " jodkar ", "1458": " in str", "1459": " in string", "1460": "pehle 7 ", "1461": "line[::-1]", "1462": "8 aur ", "1463": "likho jo 8", "1464": " ka power 5", "1465": " ki 5", "1466": " ki 5 power", "1467": ", 52", "1468": ", 53", "1469": "1 aur ", "1470": "60", "1471": " in line", "1472": "val):\n    ", "1473": " in txt", "1474": ", 20, 3", "1475": "):\n    if n ", "1476": ", 85", "1477": ", 74", "1478": "return x ", "1479": ", 64", "1480": "47", "1481": ", 20]", "1482": ", 40", "1483": "hana", "1484": ", 81", "1485": ", 86", "1486": "7 aur ", "1487": "i):\n    seq", "1488": " in range(i", "1489": ": -1", "1490": "hindi'", "1491": "_fn('python'", "1492": ": 4032", "1493": ": 40320", "1494": "53", "1495": ", 91", "1496": ", 38, 2", "1497": "st [13", "1498": "\n\nprint(num", "1499": "q:\n        ", "1500": ", 37]", "1501": "ci", "1502": "civ", "1503": "civi", "1504": "civic", "1505": ": 25", "1506": "a, b):\n    ", "1507": ": 36", "1508": ": [4", "1509": "v:\n        ", "1510": ", 30]", "1511": "compute('", "1512": "y\n\nprint(", "1513": "do_math('", "1514": "2857", "1515": "285714", "1516": "txt[::-1]", "1517": "dost'", "1518": "race", "1519": "racec", "1520": "racecar", "1521": ". Example: 4", "1522": "43", "1523": "s[::-1]", "1524": "6, 6", "1525": "_fn([9", "1526": "ni", "1527": ": 33", "1528": ", 30, 1", "1529": ": P", "1530": ": PY", "1531": ": PYT", "1532": ": PYTH", "1533": ": PYTHO", "1534": ": PYTHON", "1535": "30", "1536": "return a", "1537": "_fn([6", "1538": ": [2", "1539": "likho jo 7", "1540": ": 5040", "1541": ", 4]", "1542": "words = line", "1543": ", 99", "1544": "48", "1545": "me se ", "1546": "return a ", "1547": ", 40, 3", "1548": "studio'", "1549": "in hai", "1550": "in hai'", "1551": ", 30", "1552": ", 49", "1553": "te ho'", "1554": ", 18]", "1555": ", 90", "1556": ", 54", "1557": "34", "1558": ", 1]", "1559": "-4", "1560": "if not value", "1561": "sum(values", "1562": ", 8, 13]", "1563": ", 79", "1564": "y:\n        ", "1565": ". Example: 1", "1566": "st [37", "1567": "0, 23", "1568": "_fn([7", "1569": "159 * a * ", "1570": "159 * a * a", "1571": ", 82", "1572": ", 40]", "1573": "i):\n    ", "1574": ", 87", "1575": "_fn([1", "1576": "38", "1577": " ka power 2", "1578": " ki 2 ", "1579": " ki 2 power", "1580": ", 78", "1581": "\n\nprint(sum", "1582": "do_math([", "1583": "value):\n    ", "1584": " aur 7", "1585": "36", "1586": ". Example: 7", "1587": "line ", "1588": ". Example: 3", "1589": "st [12", "1590": "kaya", "1591": "kayak", "1592": ", 84", "1593": "2 minus kare", "1594": "chai piyo'", "1595": "\n\nprint(test", "1596": "pehle 8", "1597": "calc_total('", "1598": ", 19]", "1599": "not data", "1600": "sum(data", "1601": ") / len(data", "1602": "process('", "1603": "m:\n        ", "1604": ": 100", "1605": ", 83", "1606": "run_calc('", "1607": "run_calc([", "1608": "padhai", "1609": "padhai'", "1610": ", 12]", "1611": ": ST", "1612": ": STU", "1613": ": STUDI", "1614": ": STUDIO", "1615": ": C", "1616": ": CO", "1617": ": CODI", "1618": ": CODIN", "1619": ": CODING", "1620": "math_tool('", "1621": "words = txt", "1622": "49", "1623": "int(a ", "1624": "if a ", "1625": "\n\nprint(avg", "1626": ": 78.", "1627": " aur 8", "1628": "-23", "1629": " ki number ", "1630": ", 66", "1631": "a'", "1632": "compute([", "1633": ", 35]", "1634": ", 17]", "1635": "2 ho", "1636": "other_fn('", "1637": "return x + y", "1638": "_fn([2", "1639": "9 ka factori", "1640": ": 3628", "1641": ": 362880", "1642": "likho jo 4", "1643": "0, 27", "1644": "find_it([", "1645": ", 1, 2]", "1646": ".6", "1647": ", 28]", "1648": ", 6]", "1649": "arkar", "1650": "make_it([", "1651": "return i + ", "1652": "word = ", "1653": "word = word", "1654": "word == ", "1655": "get_result([", "1656": "num <= ", "1657": "159 * n * ", "1658": "159 * n * n", "1659": "namaste'", "1660": "words = text", "1661": "2 aur ", "1662": "do_it([", "1663": ": id", "1664": "te hai", "1665": "te hai'", "1666": "st [14", "1667": "58", "1668": ": 17", "1669": ", 20, 1", "1670": "pehle 9 ", "1671": ", 8, 13, 21]", "1672": "13 aur ", "1673": "base 10", "1674": "ani 10", "1675": "str1 = ", "1676": "str1 = str1", "1677": "str1 == ", "1678": ": 25.0", "1679": "num_work('", "1680": " ki val ", "1681": "return val ", "1682": "664", "1683": "pehle 10", "1684": ", 27]", "1685": "helper_fn('", "1686": " me sab", "1687": "90", "1688": ", 32]", "1689": ": 12.", "1690": "not arr", "1691": "sum(arr", "1692": ") / len(arr", "1693": "x):\n    seq", "1694": " in range(x", "1695": ": 33.", "1696": "st [16", "1697": "pehle 4", "1698": "first * ", "1699": "39", "1700": "words = str1", "1701": ", 9]", "1702": "Do", "1703": " likho jo 5", "1704": "val * ", "1705": "the_answer('", "1706": "num):\n    ", "1707": "84", "1708": ", 65", "1709": "Khana", "1710": ", 50]", "1711": ", 98", "1712": ": 98", "1713": "94", "1714": "do_it('", "1715": "45", "1716": "aldi", "1717": " ki n ", "1718": " ki n even ", "1719": "value_fn('", "1720": "return u - ", "1721": ": 120", "1722": "likho jo 6", "1723": "my_func([", "1724": " ka power 3", "1725": " ki 3", "1726": " ki 3 power", "1727": "_fn([5", "1728": "result_fn('", "1729": "return i * ", "1730": "u, v = ", "1731": "u, v = v", "1732": "u, v = v, ", "1733": "u, v = v, u", "1734": " % v", "1735": "u\n\nprint(", "1736": "value * ", "1737": ", 60", "1738": " ki value ", "1739": "num < ", "1740": "int(num ", "1741": "if num ", "1742": "75", "1743": "val1 > ", "1744": "val1 > val", "1745": "ka sum 5", "1746": ", 2]", "1747": "text ", "1748": "make_it('", "1749": ", 80]", "1750": "ki jai'", "1751": "_fn([15", "1752": "calc_total([", "1753": "txt = ", "1754": "txt = txt", "1755": "txt == ", "1756": "return n + ", "1757": "96", "1758": "us 5", "1759": "us 5 hai", "1760": "5), 2", "1761": ": 78.54", "1762": "31", "1763": ", 11]", "1764": "159 * x * ", "1765": "159 * x * x", "1766": "Hind", "1767": "Hindi", "1768": "Naya", "1769": "find_it('", "1770": ", 62", "1771": ", 3]", "1772": ": 81", "1773": ": 89", "1774": "get_value('", "1775": ": N", "1776": ": NA", "1777": ": NAM", "1778": ": NAMAS", "1779": ": NAMAST", "1780": ": NAMASTE", "1781": "hello world'", "1782": ", 26]", "1783": "6]", "1784": "likho jo 5", "1785": "_fn([14", "1786": "do numbers 5", "1787": "the_answer([", "1788": "st [19", "1789": "return u * ", "1790": "le num", "1791": " = num2", "1792": " = num2, ", "1793": "num1 % ", "1794": "num1 % num2", "1795": "num1\n\nprint(", "1796": "math_tool([", "1797": "if not num", "1798": "sum(nums", "1799": ") / len(nums", "1800": ": 64", "1801": "words = word", "1802": "0, 13", "1803": ": 63", "1804": ": 11.", "1805": "111111111111", "1806": "not lst", "1807": "sum(lst", "1808": ") / len(lst", "1809": "336", "1810": "81", "1811": ", 10, 3", "1812": "st [17", "1813": "2 hai", "1814": ": 45", "1815": "get_value([", "1816": "1.0", "1817": ": 46", "1818": " ki x ", "1819": " ki x even ", "1820": "likho jo u", "1821": "18, 2", "1822": "pehle 6", "1823": ": H", "1824": ": HI", "1825": ": HIN", "1826": ": HINDI", "1827": "st [33", "1828": ", 11, 34", "1829": "61", "1830": "_fn([12", "1831": ", 88", "1832": ", 22]", "1833": " likho jo '", "1834": "string = ", "1835": "string == ", "1836": ": an", "1837": ": anah", "1838": "83", "1839": "j:\n        ", "1840": " aur 14", "1841": "second_fn('", "1842": "first + ", "1843": ": [22", "1844": ", 30, 39", "1845": "a' ko ulta (", "1846": ": ah", "1847": ": ahcc", "1848": "0 de", "1849": "words = s", "1850": "n):\n    seq", "1851": " in range(n", "1852": ": [6", "1853": ": 95", "1854": "p, q = ", "1855": "p, q = q", "1856": "p, q = q, ", "1857": "p, q = q, p", "1858": " % q", "1859": "p\n\nprint(", "1860": "a):\n    seq", "1861": " in range(a", "1862": ", 28, 2", "1863": ": [34", "1864": "int(i ", "1865": "if i ", "1866": "civic'", "1867": ": 55", "1868": "8 ke liye ", "1869": ": 0", "1870": "-8", "1871": "pehle 5", "1872": ", 1, 2, 3]", "1873": "process([", "1874": "number < ", "1875": "int(number ", "1876": "if number ", "1877": ": 84", "1878": "):\n    if p", "1879": ": 35", "1880": "first - ", "1881": ", 68", "1882": "0, 37", "1883": ", 31]", "1884": "st [18", "1885": "159 * i * ", "1886": "159 * i * i", "1887": "test_fn(7", "1888": ", 19, 21", "1889": "simple_fn('", "1890": "us 9 ", "1891": "us 9 hai", "1892": "9), 2", "1893": ": 254", "1894": ": 254.", "1895": ": 254.47", "1896": "Dost", "1897": "so", "1898": ": 14.", "1899": ": 14.285714", "1900": "28571428", "1901": "285714285", "1902": "15 aur ", "1903": "St", "1904": "Studio", "1905": ", 50", "1906": "leve", "1907": "level", "1908": "93", "1909": "st [24", "1910": "return p - ", "1911": "naya", "1912": "7 de", "1913": "7.", "1914": "st [11", "1915": "159 * num * ", "1916": "69", "1917": "return x - ", "1918": "us 4", "1919": "us 4 hai", "1920": "4), 2", "1921": ": 50.", "1922": ": 50.27", "1923": "return u + ", "1924": ", 80", "1925": "a, b = ", "1926": "a, b = b", "1927": "a, b = b, ", "1928": "a, b = b, a ", "1929": "% b", "1930": "a\n\nprint(", "1931": "rad", "1932": "radar", "1933": ", 16, 18, 2", "1934": ", 17, 24", "1935": ": D", "1936": ": DO", "1937": ": DOST", "1938": "racecar'", "1939": "0, 43", "1940": ": [16", "1941": "bharat", "1942": "namaste ", "1943": "namaste d", "1944": "namaste dun", "1945": "51", "1946": ", 82]", "1947": "return i", "1948": "first > ", "1949": "return first", "1950": "st [10", "1951": "x, y = y, x ", "1952": "% y", "1953": "x\n\nprint(", "1954": ", 9, 19", "1955": ": no", "1956": ": noh", "1957": ": noht", "1958": ": nohty", "1959": ": 50.0", "1960": " aur 28", "1961": ", 23]", "1962": ", 7]", "1963": "_fn([13", "1964": ": [26", "1965": ": 75", "1966": ": [38", "1967": ", 33]", "1968": "us 1", "1969": "n, m = ", "1970": "n, m = m", "1971": "n, m = m, ", "1972": "n, m = m, n ", "1973": "% m", "1974": "n\n\nprint(", "1975": ": 97", "1976": ")\n\nprint(num", "1977": ", 35, 36", "1978": "10, 1", "1979": ", 25]", "1980": "not list", "1981": "sum(list1", "1982": "63", "1983": "10 aur ", "1984": "return p * ", "1985": "st [20, 1", "1986": "0, 22", "1987": "do numbers 3", "1988": ": 91", "1989": ": 10000", "1990": "68", "1991": ": [12", "1992": ", 5]", "1993": ", 24]", "1994": "my_func('", "1995": "num1 me se ", "1996": "easy_fn(7", "1997": "do numbers 7", "1998": "_fn([16", "1999": ": 70", "2000": "return n * ", "2001": "85", "2002": "return x", "2003": "jaise -1", "2004": "16 ho", "2005": ": [32", "2006": "us 8", "2007": "us 8 hai", "2008": "8), 2", "2009": ": 201.0", "2010": ": 201.06", "2011": "4 ke liye ", "2012": "base 7", "2013": "ani 7", "2014": "st [21", "2015": " me se v", "2016": "base 4", "2017": "ani 4", "2018": "64", "2019": "num1 > ", "2020": "num1 > num", "2021": " aur 19", "2022": "total_fn('", "2023": "if not item", "2024": "sum(items", "2025": "7 ke liye ", "2026": "le second", "2027": "second = ", "2028": "second, ", "2029": "first % ", "2030": "number <= ", "2031": ", 76", "2032": "line = ", "2033": "line = line", "2034": "line == ", "2035": "do numbers 9", "2036": "get_result('", "2037": "0, 25", "2038": "kayak'", "2039": ", 15]", "2040": "1 ke liye ", "2041": ", 46]", "2042": ": 90", "2043": ", 57", "2044": " likho jo 3", "2045": "value < ", "2046": "int(value ", "2047": "if value ", "2048": "accha hai", "2049": "accha hai'", "2050": "24, 24", "2051": "chaap", "2052": "val1 me se ", "2053": "2 ke liye ", "2054": "jaldi", "2055": "le val", "2056": " = val2", "2057": " = val2, ", "2058": "val1 % ", "2059": "val1 % val2", "2060": "val1\n\nprint(", "2061": "_fn([10", "2062": ": idni", "2063": "_fn([19", "2064": ", 59]", "2065": "27 ho", "2066": "2, 4", "2067": "st [23", "2068": ", 34, 36", "2069": "_fn([23", "2070": "st [36", "2071": ", 70, 1", "2072": " ki i ", "2073": " ki i even ", "2074": "46", "2075": ", 30, 2", "2076": ": 16.", "2077": "quick_calc([", "2078": "return p + ", "2079": "4 ka kitna ", "2080": ", 12, 17", "2081": "Pytho", "2082": "Python", "2083": "st [29", "2084": ": 10.0", "2085": ", 5, 12", "2086": "value <= ", "2087": "9 de", "2088": "9 ho", "2089": ", 7, 33", "2090": "st [31", "2091": ": 79", "2092": "55", "2093": ", 90, 4", "2094": "):\n    if u", "2095": "0, 16", "2096": ", 39]", "2097": ": t", "2098": "23 ho", "2099": ": o", "2100": ": oid", "2101": ": oidut", "2102": "return a + ", "2103": "batae ki 53", "2104": ": 27", "2105": ": [14", "2106": "159 * val * ", "2107": ", 93", "2108": "khana", "2109": "52", "2110": "return n", "2111": "sarkar", "2112": ": ra", "2113": ": rak", "2114": ": rakra", "2115": ", 36, 4", "2116": ".75", "2117": ": 13", "2118": "rotor", "2119": "0, 41", "2120": ", 40, 1", "2121": "-3", "2122": ": 18", "2123": "8, 20]", "2124": ", 23, 6", "2125": "67", "2126": ", 6, 21", "2127": "17 aur ", "2128": "6 aur ", "2129": ", 96", "2130": "0, 26", "2131": "und(do_math(", "2132": ": 44", "2133": "Sarkar", "2134": ", 11, 19", "2135": "Acch", "2136": "mada", "2137": "madam", "2138": ": 720", "2139": "likho jo -1", "2140": "st [32", "2141": "base 8", "2142": "ani 8", "2143": ", 16, 15", "2144": ", 10, 13", "2145": ", 22, 29", "2146": "Khana'", "2147": ": anahK", "2148": ": 86", "2149": "quick_calc('", "2150": ": pa", "2151": ": paah", "2152": ": idl", "2153": "likho jo 24", "2154": ", 88]", "2155": "string 'acch", "2156": "accha'", "2157": ": ahcca", "2158": "6)", "2159": "29 ho", "2160": ", 9, 14", "2161": ": 42.", "2162": "0, 28", "2163": ": 30", "2164": ", 2, 17", "2165": ", 14, 1", "2166": "0, 40, 1", "2167": ", 35, 38", "2168": ", 35, 38]", "2169": "s):\n    s", "2170": "s):\n    s = ", "2171": "s.lower()", "2172": "s == ", "2173": "s == s[::-1]", "2174": ": [10", "2175": "8 ka kitna ", "2176": ". Example: 8", "2177": ": g", "2178": ": gni", "2179": ": gnido", "2180": "likho jo a ", "2181": "me se b", "2182": "return a - ", "2183": "batae ki 41", "2184": "val < ", "2185": "int(val ", "2186": "if val ", "2187": ", 40, 32", "2188": ", 20, 8", "2189": "-9", "2190": ": -9", "2191": ": 48", "2192": "91", "2193": "21 ho", "2194": "_fn([29", "2195": "19 aur ", "2196": ".2", "2197": ": 58.", "2198": "_fn('coding'", "2199": ": 12.5", "2200": "base 11", "2201": "ani 11", "2202": "9]", "2203": " naam ka ", "2204": "text = ", "2205": "text = text", "2206": "text == ", "2207": ": 85", "2208": "1, 11", "2209": "16 aur ", "2210": ". Example: 9", "2211": " aur 31", "2212": "int(x ", "2213": "ka width 18", "2214": "ka width 25", "2215": "us 15", "2216": "us 15 hai", "2217": "15), 2", "2218": ": 706", "2219": ": 706.8", "2220": ": 706.86", "2221": ". Example: 6", "2222": "und(compute(", "2223": ", 54]", "2224": "_fn('hindi'", "2225": "6, 4", "2226": ", 7, 3", "2227": "98", "2228": ": 54", "2229": "8, 21", "2230": "solve_it('", "2231": ", 61]", "2232": " = -2", "2233": ", 45]", "2234": "us 3", "2235": "us 3 hai", "2236": "3), 2", "2237": ": 28.", "2238": ": 28.27", "2239": "the_answer(5", "2240": "st [75", "2241": "simple_fn([3", "2242": "st [30", "2243": ": 83", "2244": "ka width 2", "2245": ": 28", "2246": " aur v", "2247": "Hindi'", "2248": ": idniH", "2249": "us 2 hai", "2250": "2), 2", "2251": ": 12.57", "2252": "string 'Naya", "2253": "Naya'", "2254": ": aya", "2255": ": ayaN", "2256": "base 5", "2257": "ani 5", "2258": "50", "2259": ": 65", "2260": "fast_calc('", "2261": "3 ke liye ", "2262": "3 ho", "2263": "76", "2264": "us 14", "2265": "us 14 hai", "2266": "14), 2", "2267": ": 615", "2268": ": 615.75", "2269": "5, 15", "2270": ", 38, 9", "2271": ", 3, 8", "2272": "0, 32", "2273": ", 19, 4", "2274": "us 6", "2275": "us 6 hai", "2276": "6), 2", "2277": ": 113.", "2278": ": 113.1", "2279": "6 ka kitna ", "2280": ": 39", "2281": "base 3", "2282": "ani 3", "2283": "return n - ", "2284": "8, 4", "2285": ", 7, 11", "2286": "8, 26", "2287": "cl", "2288": "clas", "2289": "sel", "2290": "self", "2291": "return a * ", "2292": "0, 31", "2293": "ka width 14", "2294": ": 74", "2295": ", 22, 23", "2296": "89", "2297": " aur -2", "2298": "0 ka kitna ", "2299": "val <= ", "2300": "st [38", "2301": ", 1, 3", "2302": ", 4, 38, 2", "2303": ": 207", "2304": ", 1] me sab", "2305": "us 7 ", "2306": "us 7 hai", "2307": "7), 2", "2308": ": 153.", "2309": ": 153.94", "2310": " aur 34", "2311": "jaise -", "2312": "jaise -2", "2313": "5 de", "2314": "6, 3", "2315": ": 82", "2316": "num1 aur ", "2317": "0 aur ", "2318": "0, 10", "2319": ", 6, 9", "2320": ": [28", "2321": ": nohtyp", "2322": ": 58", "2323": "base 2", "2324": "ani 2", "2325": ", 75]", "2326": ": 53.", "2327": ": 42.8", "2328": ", 59] me sab", "2329": ", 30, 34", "2330": ", 100, 23", "2331": ", 72, 17", "2332": "21 ka GCD", "2333": "1, 21", "2334": "ka width 3", "2335": "25 ho", "2336": "get_value(7", "2337": "num_work(8", "2338": "st [57", "2339": ", 51] me sab", "2340": "_fn([57", "2341": ", 51]", "2342": " aur 38", "2343": "st [34", "2344": ", 53]", "2345": "1, 5", "2346": "[36", "2347": "10, 3", "2348": ", 37] me sab", "2349": ", 90]", "2350": ": 64.", "2351": ", 55]", "2352": "find_it([7", "2353": ", 73]", "2354": ": gnidoc", "2355": "return i - ", "2356": "likho jo x ", "2357": ": 111", "2358": "1, 3", "2359": "_fn([20, 1", "2360": ", 6, 32", "2361": "12 aur ", "2362": " aur 26", "2363": ", 60]", "2364": "10, 4", "2365": "-4 de", "2366": ": 24.8", "2367": "Jaldi", "2368": ", 26, 34", "2369": ", 8, 7", "2370": "batae ki 13", "2371": "14 aur ", "2372": ", 43]", "2373": "likho jo -", "2374": "ka width 20", "2375": ": 180", "2376": "simple_fn(i", "2377": "6 de", "2378": ", 34, 35", "2379": ": 38.", "2380": ", 11, 4", "2381": ", 30, 37", "2382": ", 32, 27", "2383": ": 71", "2384": "7, 27", "2385": "_fn([17", "2386": " = -", "2387": ": -5", "2388": ", 147", "2389": ", 48, 47", "2390": "st [100", "2391": "18 aur ", "2392": "check_fn([4", "2393": ": 26", "2394": "us 12 hai", "2395": "12), 2", "2396": ": 452.", "2397": ": 452.39", "2398": ", 74, 80]", "2399": "92", "2400": "_fn([18", "2401": ": -24", "2402": ": 240", "2403": "likho jo 20", "2404": ": [30, 4", "2405": ": -4", "2406": "ka width 23", "2407": "likho jo 26", "2408": "und(my_func(", "2409": ", 28, 34", "2410": "base 12", "2411": "ani 12", "2412": "string 'Dost", "2413": "Dost'", "2414": ": tso", "2415": ": tsoD", "2416": "6 ho", "2417": ": 105", "2418": ": 63.", "2419": "Studio'", "2420": ": oidutS", "2421": "59", "2422": ": 52.", "2423": ", 18, 5", "2424": "-18", "2425": "level'", "2426": "ka sum 36", "2427": "ka sum 36 ho", "2428": ": 48.", "2429": "2, 15", "2430": "70", "2431": "likho jo p", "2432": ": -3", "2433": "likho jo 40", "2434": "first_fn('", "2435": ", 20, 19", "2436": "13 ho", "2437": "string 'naya", "2438": "naya'", "2439": ": a", "2440": ": ay", "2441": ": ayan", "2442": "und(process(", "2443": "1.", "2444": "st [20", "2445": ", 97, 67", "2446": ", 4, 24", "2447": "7, 5", "2448": ": 1680", "2449": ": 16807", "2450": ", 98, 21", "2451": ", 62]", "2452": "2, 2", "2453": "3, 27", "2454": ", 78, 56", "2455": ". Example: 5", "2456": "st [69", "2457": ", 58", "2458": ", 23, 38]", "2459": ", 48]", "2460": ", 34, 59", "2461": ", 12, 45", "2462": " ki a ", "2463": " ki a even ", "2464": "9 - ", "2465": "ka sum 52 ho", "2466": "st [27", "2467": "95", "2468": "likho jo i ", "2469": "4 aur ", "2470": "num_work([", "2471": "12 ", "2472": ", 26, 8", "2473": "radar'", "2474": "29 ka GCD", "2475": "st [52", "2476": "my_func(7", "2477": ", 16, 5", "2478": "20 ka GCD", "2479": "st [54", "2480": "ka width 6", "2481": ", 21, 6", "2482": "0, 26, 6", "2483": "make_it(8", "2484": "0, 24", "2485": "10 ka kitna ", "2486": ", 20, 26", "2487": ", -19", "2488": ": 98.", "2489": ": 98.6", "2490": "58, 40", "2491": "_fn([11", "2492": "_fn([37", "2493": "likho jo n ", "2494": "me se m", "2495": ": 49", "2496": ": 38", "2497": "8, 28", "2498": "bharat'", "2499": ": [24", "2500": ": 68", "2501": "4, 5", "2502": "iya", "2503": "iya'", "2504": "ka width 21", "2505": ", -21", "2506": ", 17, 32", "2507": "anna", "2508": "nikale ki 84", "2509": " aur 39", "2510": "0, 23, 17", "2511": "ka width 7", "2512": ", 28, 4", "2513": "Ani", "2514": "Anim", "2515": "class ", "2516": "nam", "2517": "name", "2518": "Bho", "2519": "Bhow", "2520": "Me", "2521": "Meow", "2522": "Cha", "2523": "Chaap", "2524": ", 16, 36", "2525": ", 22, 9", "2526": "-30", "2527": ", 14, 10]", "2528": "90, 8", "2529": ": 99", "2530": ", 42]", "2531": ", 37, 5", "2532": "2, 53", "2533": ", 90, 2", "2534": ", 20, 27", "2535": ", 16, 18, 21", "2536": ", 30, 31", "2537": ", 5, 24", "2538": ", 20, 37", "2539": ", 31, 27", "2540": ", 26, 27", "2541": ", 17, 15", "2542": ", 70]", "2543": ", 20, 25", "2544": ", 63, 1", "2545": ", 43, 3", "2546": ", 72] me sab", "2547": ", 72]", "2548": "do_it([3", "2549": "fast_calc(-1", "2550": "test_fn(3", "2551": "chaap'", "2552": ": paahc", "2553": ": e", "2554": ": et", "2555": ": etsa", "2556": ": etsama", "2557": "-13", "2558": "-7", "2559": ", -13", "2560": ", 0", "2561": "likho jo -2", "2562": "st [22", "2563": "jaldi'", "2564": ": idlaj", "2565": ", 30, 39]", "2566": " = 6)", "2567": "st [45", "2568": "_fn([45", "2569": ": -18", "2570": "avg_fn(3", "2571": "first aur ", "2572": "1, 23", "2573": "compute(8", "2574": ": 73", "2575": ", 14, 36", "2576": ": 53.0", "2577": "do_math(9", "2578": "ka width 29", "2579": ", 5, 6", "2580": "13, 20", "2581": "11 ka GCD", "2582": "7, 11", "2583": ", 36, 38]", "2584": "us 1 hai", "2585": "1), 2", "2586": ": 3.", "2587": ": 3.14", "2588": ", 12, 32", "2589": "_fn([34", "2590": "batae ki 29", "2591": ": 1000", "2592": "st [60", "2593": ": 34", "2594": "0, 19", "2595": ", 22, 40]", "2596": "work_fn('", "2597": ", 20, 8, 10]", "2598": ": [36", "2599": " - 12", "2600": ": 29", "2601": ", -8", "2602": ": -8", "2603": "0, 34", "2604": "my_func(5", "2605": "nikale ki 29", "2606": "12, 4", "2607": "Python'", "2608": ": nohtyP", "2609": "likho jo 42", "2610": ", 26, 30]", "2611": "8, 6", "2612": "main_fn(x", "2613": "x * main_fn(", "2614": ", 26, 34, 8", "2615": ": 19", "2616": ", 29, 30, 3", "2617": "do_math([4", "2618": ", 30, 16", "2619": "10, 5", "2620": ": 100000", "2621": ", 14, 6", "2622": ", 4, 19", "2623": "my_func([13", "2624": ": 114", "2625": "second_fn([4", "2626": "sum_fn(6", "2627": "batae ki 35", "2628": ", 13, 7", "2629": "11, 4", "2630": ": 146", "2631": ": 14641", "2632": " aur 22", "2633": "71", "2634": " aur 35", "2635": "1, 79", "2636": "5)", "2637": ": 69", "2638": ", 9, 37", "2639": "st [84", "2640": "_fn([84", "2641": "batae ki 25", "2642": ", 16, 14", "2643": "st [13, 34", "2644": ": 78", "2645": "und(test_fn(", "2646": "result_fn(6", "2647": ", 26, 30, 3", "2648": ": 46.", "2649": "2, 3", "2650": "second_fn([9", "2651": "st [15, 2", "2652": "calc_total(9", "2653": "ka sum 64", "2654": "ka sum 64 ho", "2655": "calc_total(x", "2656": ": 144", "2657": ", 29] me sab", "2658": ", 29]", "2659": "15, 10", "2660": "ka width 28", "2661": "6] ke saare ", "2662": "26 aur ", "2663": ": 53", "2664": "fast_calc(6", "2665": "simple_fn(7", "2666": ", 13, 26", "2667": " me se q", "2668": "helper_fn(4", "2669": "_fn([33", "2670": ": 133", "2671": " other", "2672": "13, 19", "2673": "value_fn(26", "2674": ": 78.8", "2675": "batae ki 43", "2676": "batae ki 11", "2677": "khana'", "2678": ": anahk", "2679": "batae ki 21", "2680": "main_fn(7", "2681": ", 24, 20]", "2682": ", 61] me sab", "2683": "sarkar'", "2684": ": rakras", "2685": ", 7, 9", "2686": ": 76", "2687": "_fn('studio'", "2688": "fast_calc(7", "2689": ", 17] me sab", "2690": "9, 64", "2691": "rotor'", "2692": "9, 13", "2693": ", 19, 2", "2694": "9 ke liye ", "2695": ", 47]", "2696": ": 88", "2697": "st [35", "2698": ": 134", "2699": "simple_fn(4", "2700": "2, 11", "2701": "16, 20", "2702": ": 320", "2703": "und(make_it(", "2704": ", 30, 36", "2705": "9, 9", "2706": "14 ho", "2707": ": 47", "2708": ": 182", "2709": "aur j", "2710": "8, 22", "2711": "9, 46", "2712": ", 77]", "2713": ", 11, 12]", "2714": "8 ho", "2715": " aur 40", "2716": "do_it(9", "2717": "ka width 24", "2718": "me se y", "2719": "8, 24", "2720": ", 19, 31", "2721": "do numbers 4", "2722": ": [30, 1", "2723": "-16", "2724": " aur -1", "2725": " jodkar -", "2726": ": -38", "2727": "calc_fn('", "2728": ", 22, 8", "2729": "total_fn(15", "2730": ": 135", "2731": ", 36, 39", "2732": ")\n\nprint(avg", "2733": "_fn([30", "2734": "do numbers 6", "2735": ": -6", "2736": "ka sum 57", "2737": "ka sum 57 ho", "2738": "run_calc(5", "2739": ", 16, 18", "2740": ": [18", "2741": "-19", "2742": "calc_total(5", "2743": "Sarkar'", "2744": ": rakraS", "2745": "0, 87", "2746": "und(work_fn(", "2747": ".5", "2748": "fast_calc(3", "2749": ": 169", "2750": "batae ki 12 ", "2751": " likho jo 8", "2752": ", 10, 8", "2753": ", 10, 8, 18", "2754": "second_fn(7", "2755": "2 de", "2756": "19 ho", "2757": "_fn('dost'", "2758": "base 6", "2759": "ani 6", "2760": "string 'Acch", "2761": "Accha'", "2762": ": ahccA", "2763": ": 22", "2764": ", 85]", "2765": "nikale (26", "2766": ", 46, 28", "2767": ": 243", "2768": "batae ki 37", "2769": "total_fn([4", "2770": ": 68.0", "2771": ", 20, 20]", "2772": ", 40, 4", "2773": "base 9", "2774": "ani 9", "2775": "madam'", "2776": ", -23", "2777": "likho jo 25", "2778": ", 2, 15", "2779": ", 4, 30]", "2780": "ka sum 45", "2781": "ka sum 45 ho", "2782": "likho jo 33", "2783": "compute(10", "2784": "8, 20", "2785": ", 30, 27", "2786": ", 7, 3]", "2787": ", 14, 6]", "2788": "Dog", "2789": "Ca", "2790": "Animal", "2791": "def so", "2792": "def sound(", "2793": "return \"", "2794": "\"\n\n", "2795": " Bhow", "2796": " Meow", "2797": "st [77", "2798": " aur 2", "2799": "st [25", "2800": ", 13]", "2801": ": -15", "2802": "compute(9", "2803": ", 24, 2", "2804": ", 24, 2, 38", "2805": ", 4, 2", "2806": ": 20.0", "2807": ", -24", "2808": "24 ho", "2809": " likho jo u", "2810": ", 67]", "2811": "test_fn(a", "2812": "a * test_fn(", "2813": "ka width 10", "2814": ": 4096", "2815": ", 13, 18", "2816": " likho jo 60", "2817": ", 64, 7", "2818": ": 210", "2819": " - 1", "2820": ", 32, 30, 2", "2821": ": 21", "2822": "5, 40", "2823": "helper_fn([", "2824": "25, 15", "2825": "_fn('main ", "2826": "do numbers 8", "2827": "jaise -23", "2828": ", 10, 5", "2829": "batae ki 7", "2830": "batae ki 7 p", "2831": ": 312", "2832": ": 3125", "2833": "0, 2, 22", "2834": "[38", "2835": "20, 1", "2836": " aur 17", "2837": ": 122", "2838": " me aise ", "2839": " aur 25", "2840": "calc_fn(num", "2841": ": 42", "2842": ", 4, 4", "2843": ", 58]", "2844": "7, 48", "2845": "value_fn([7", "2846": "7 ho", "2847": " ki num ", "2848": "return num ", "2849": "0, 21", "2850": ", 17, 46]", "2851": ": []", "2852": ", 17, 19", "2853": "-11", "2854": "st [43", "2855": ": 66", "2856": ", 98]", "2857": ", 41]", "2858": ": 77", "2859": ", 69", "2860": ", 2, 81", "2861": ", 2, 81, 62", "2862": "st [82", "2863": ", 89, 51", "2864": "_fn([82", "2865": "9, 37", "2866": "9, 37, 48", "2867": ", 33, 50]", "2868": " likho jo -1", "2869": ": 30.", "2870": ": 30.2", "2871": ", 17, 67", "2872": ", 17, 67, 89", "2873": ", 98, 84", "2874": ": etsaman", "2875": "19 aur 14", "2876": "19, 14", "2877": ": 266", "2878": ": -20", "2879": " aur 0", "2880": "-23 jodkar ", "2881": ", 18, 26, 3", "2882": ", 20, 7", "2883": ": 43", "2884": "6, 62", "2885": "6, 62, 88]", "2886": "Na", "2887": "Namast", "2888": "Namaste", "2889": "_fn('accha'", "2890": ": 32.0", "2891": " - 37", "2892": "ka width 26", "2893": "other_fn(8", "2894": ", 59, 79", "2895": ", 59, 79, 81", "2896": "quick_calc(7", "2897": ", -29", "2898": "10 ka GCD", "2899": ", 30, 1, 1", "2900": "us 10", "2901": "us 10 hai", "2902": "math_tool(10", "2903": ": 314", "2904": ": 314.", "2905": ": 314.16", "2906": "st [14, 6", "2907": ", 12, 18", "2908": ", 31, 14, 36", "2909": "check_fn(8", "2910": "simple_fn(2", "2911": "nikale ki 26", "2912": ", 67, 33", "2913": ", 12, 55", "2914": ", 12, 55, 4", "2915": ", 20, 94", "2916": "easy_fn('", "2917": ", 24, 30, 34", "2918": "solve_it(3", "2919": "st [83", "2920": ", 91, 72, 17", "2921": "_fn([83", "2922": ", 38, 24", "2923": ", 38, 24, 37", "2924": "total_fn([6", "2925": ", 4, 10", "2926": ", 4, 10, 7", "2927": "29, 27", "2928": ": 783", "2929": "get_value(3", "2930": "st [1, 14, 1", "2931": ": [2, 28, 2", "2932": "13 aur 20", "2933": ": 260", "2934": ", 34, 36, 38", "2935": ", 97, 47", "2936": ", 97, 47, 45", "2937": ", 8, 33", "2938": "0, 84", "2939": "0, 84, 25", "2940": "0, 84, 25, 6", "2941": "likho jo 54", "2942": ", 97, 82", "2943": ", 12, 32, 1", "2944": ", 53] me sab", "2945": "st [1, 5", "2946": ", 11, 18", "2947": "ka sum 29 ho", "2948": ", 7, 35", "2949": ", 7, 35, 44", "2950": ", 83, 94", "2951": ", 70, 11", "2952": "st [50, 4", "2953": "8, 70", "2954": "8, 70, 90]", "2955": "basic_fn('", "2956": "ka width 17", "2957": ", 12, 47", "2958": ", 55] me sab", "2959": "nikale ki 57", "2960": "82", "2961": "3, 87", "2962": "3, 87, 99", "2963": ", 73] me sab", "2964": "st [3, 12", "2965": ": 12", "2966": "st [63", "2967": ", 37, 10]", "2968": "Co", "2969": "Coding", "2970": ", 40, 32, 9", "2971": "process([36", "2972": "nikale (41", "2973": " - 12 = ", "2974": "fast_calc(18", "2975": "st [1, 15", "2976": "_fn([1, 15", "2977": ", 30, 24]", "2978": "simple_fn(10", "2979": "19, 1", "2980": "19, 114", "2981": "1, 3, 16", "2982": ", 21, 12, 17", "2983": ", 9, 35", "2984": "10, 2", "2985": "calc_fn(u, v", "2986": ", 78, 5", "2987": ", 78, 5, 82", "2988": ", 35, 60]", "2989": " aur 30", "2990": "st [29, 12", "2991": ", 26, 5", "2992": ", 30, 17", "2993": "_fn([29, 12", "2994": "90, 9", "2995": "90, 900", "2996": "Jaldi'", "2997": ": idla", "2998": ": idlaJ", "2999": ", 6, 20, 8", "3000": ", 29, 26", "3001": "make_it(19", "3002": "st [4, 5, 12", "3003": ", 29, 30, 35", "3004": "25, 22", "3005": "25, 225", "3006": "st [14, 15", "3007": "_fn([14, 15", "3008": ": 129", "3009": "st [94", "3010": ", 83, 49", "3011": ", 83, 49, 60", "3012": ", 8] me sab", "3013": ", 52, 43]", "3014": ": 15.8", "3015": "simple_fn(i ", "3016": ": [26, 28", "3017": ", 8, 38]", "3018": " aur 16", "3019": ", 34, 35, 11", "3020": "10 aur 17", "3021": "10, 17", "3022": ": 170", "3023": "75, 6", "3024": "75, 600", "3025": "st [81", "3026": ", 33, 23", "3027": ", 13, 7, 75]", "3028": ", 20, 4", "3029": ", 11, 40, 13", "3030": ", 31, 21", "3031": ", 30, 37, 6", "3032": ", 30, 6", "3033": "tool_fn(42", "3034": ", 6, 20", "3035": "value_fn(a", "3036": "value_fn(7", "3037": "likho jo 44", "3038": "find_it([3", "3039": ", 40, 37, 27", "3040": ", 14, 29", "3041": ": [40, 1", "3042": "0, 27, 3", "3043": "0, 27, 3, 24", "3044": "first_fn([2", "3045": "49, 147", "3046": "likho jo 21", "3047": "tool_fn(21", "3048": ", 10, 11, 21", "3049": "ka sum 59 ho", "3050": "solve_it(12", "3051": ", 46, 1", "3052": ", 46, 1, 41", "3053": ": 150", "3054": ", 48, 47, 6", "3055": "0, 27, 11", "3056": "solve_it(num", "3057": ", 72, 10", "3058": ", 72, 100, 1", "3059": "5, 68", "3060": "5, 68, 56", "3061": ", 26] me sab", "3062": "st [40, 37", "3063": ", 73, 90, 4", "3064": ", 73, 90, 44", "3065": ", 2] me sab", "3066": ": i", "3067": ": iah", "3068": ": iahd", "3069": ": iahdap", "3070": "42 aur 7", "3071": ", 70", "3072": "2 aur 13", "3073": "13, 34", "3074": "calc_total(7", "3075": "1 aur 11", "3076": ", 34, 72", "3077": "other_fn(3", "3078": "get_value(8", "3079": ", 13, 15", "3080": ", 1, 16", "3081": "20, 7", "3082": ", 95, 9", "3083": ", 95, 92, 3", "3084": ", 22, 66", "3085": "test_fn(7, 4", "3086": ": 2401", "3087": ", 9, 6", "3088": ", 19, 21, 27", "3089": ", 15, 40]", "3090": "0, 12", "3091": "0, 12, 73]", "3092": " likho jo 7", "3093": ", 8, 4", "3094": "_fn([15, 2", "3095": "get_value(23", "3096": " aur 6", "3097": "total_fn(26", "3098": "other_fn(4", "3099": ", 23, 25", "3100": "other_fn([3", "3101": "8, 780", "3102": ", 18, 87", "3103": "_fn([36", "3104": ": 87", "3105": "18, 29", "3106": "st [78", "3107": ", 19, 21, 75", "3108": "_fn([78", "3109": ", 10, 12", "3110": ", 10, 12]", "3111": "15, 105", "3112": "total_fn(28", "3113": "7, 35", "3114": "7, 35, 82", "3115": ", 74, 38]", "3116": "fast_calc([8", "3117": "total_fn([16", "3118": ", 20, 36]", "3119": ": 72", "3120": ", 59, 1]", "3121": "value_fn(14", "3122": "20, 23", "3123": ": 460", "3124": "st [59", "3125": ", 98, 52", "3126": ", 98, 52, 50", "3127": ", 72, 45", "3128": ", 72, 45, 87", "3129": "12 aur 19", "3130": "main_fn(12", "3131": "result_fn(4", "3132": "do_math(5", "3133": "sum_fn(5", "3134": ", -14", "3135": ": -32", "3136": "und(calc_fn(", "3137": "7 aur 9", "3138": "7, 9", "3139": "work_fn(9", "3140": "st [4, 8", "3141": ", 17, 20, 2", "3142": ", 17, 20, 24", "3143": "basic_fn([4", "3144": "us 13", "3145": "us 13 hai", "3146": "13), 2", "3147": ": 530.", "3148": ": 530.93", "3149": "easy_fn(4", "3150": "6, 34", "3151": "6, 34, 26]", "3152": "54, 32", "3153": "2, 15, 56", "3154": "2, 15, 56, 9", "3155": ", 81, 54]", "3156": ", 43, 41", "3157": "0 ke liye ", "3158": ", 3, 17", "3159": "helper_fn(7", "3160": "simple_fn(6", "3161": "st [40, 3", "3162": "25, 13", "3163": ": 325", "3164": "9 jodkar ", "3165": "32 de", "3166": "tool_fn(num", "3167": " likho jo 4", "3168": "st [86, 6", "3169": ", 31, 99", "3170": ", 31, 99, 68", "3171": "tool_fn(i", "3172": "24, 31", "3173": "20 aur ", "3174": "second_fn(2", "3175": ": 200", "3176": ", 90, 6", "3177": ", 90, 64]", "3178": "solve_it([20", "3179": "1, 14", "3180": "1, 14, 4", "3181": ", 97, 67, 93", "3182": "2, 15, 97", "3183": ", 29, 4, 24", "3184": ", 91, 76", "3185": ", 91, 76, 54", "3186": "24, 72", "3187": ": 94", "3188": ": 52", "3189": ", 56, 33", "3190": "9, 41", "3191": "9, 41, 64", "3192": ", 37, 62]", "3193": ", 6, 78", "3194": ", 6, 78, 66", "3195": ", 56, 76", "3196": "nikale (20", "3197": "1, 23, 10", "3198": ", 83, 75", "3199": ", 99, 36, 4", "3200": "result_fn([4", "3201": ", 72, 17, 79", "3202": "do_it(8", "3203": "batae ki 10", "3204": ", 203", "3205": ", 14, 5", "3206": ", 32, 27]", "3207": "668", "3208": "81, 16", "3209": "81, 162", "3210": "test_fn(a, b", "3211": ", 29, 23", "3212": ", 29, 23, 87", "3213": "my_func([11", "3214": ", 39, 71", "3215": ", 39, 71, 17", "3216": ", 45] me sab", "3217": "0, 97", "3218": "0, 97, 62", "3219": "value_fn([9", "3220": "run_calc(9", "3221": "calc_fn(7", "3222": "10 jodkar ", "3223": "do_math ho", "3224": "do_math(1", "3225": "9, 13, 19, 2", "3226": ": 131", "3227": ", 100, 23, 9", "3228": ", 91, 48", "3229": ", 91, 48, 58", "3230": ", 47] me sab", "3231": ", 23, 38", "3232": "ka sum 61", "3233": "ka sum 61 ho", "3234": "compute(41", "3235": ", 49, 41", "3236": ", 49, 41, 33", "3237": ": 206", "3238": "st [6, 1", "3239": "0, 25, 27", "3240": ", 41, 46", "3241": "88", "3242": ", 34, 59, 95", "3243": ", 67, 59", "3244": ", 67, 59, 51", "3245": "[30", "3246": ", 9, 38, 2", "3247": ", 9, 38, 26", "3248": ", 41, 12, 45", "3249": "likho jo 14", "3250": ": 57.", "3251": ": 57.2", "3252": "ka width 16", "3253": "20 ho", "3254": "nikale (4", "3255": ", 41, 29", "3256": ", 41, 29, 3", "3257": ", 44]", "3258": ", 18, 22", "3259": ", 30, 36]", "3260": "result_fn(21", "3261": ", 40, 19, 9", "3262": ", 4, 25", "3263": ", 4, 25, 29", "3264": "do_math([27", "3265": ": [40, 4", "3266": ", 99, 99", "3267": ", 99, 99, 94", "3268": ", 94, 83", "3269": "check_fn(29", "3270": "2, 14", "3271": "0, 30", "3272": ", 74, 47", "3273": ", 74, 47, 85", "3274": ", 80, 59", "3275": ", 1, 72", "3276": ", 1, 72, 85", "3277": ", 17, 19, 21", "3278": "2 aur 7", "3279": "12, 7", "3280": ", 56, 42", "3281": ", 56, 42, 61", "3282": ", 89] me sab", "3283": "basic_fn([", "3284": "basic_fn([24", "3285": ", 89]", "3286": "32 ka GCD", "3287": ", 11, 8, 13", "3288": "8, 7, 3", "3289": "8, 7, 3, 19", "3290": ", 85, 23, 6", "3291": "st [93", "3292": ", 81, 77]", "3293": ", 5, 8, 7", "3294": "6, 14", "3295": ", 1, 6", "3296": ", 1, 6, 11", "3297": "solve_it([2", "3298": ", 22, 20]", "3299": ", 10, 3]", "3300": ", 7, 1", "3301": ", 7, 10, 27", "3302": "ka sum 39", "3303": "ka sum 39 ho", "3304": "num_work(18", "3305": "easy_fn(i", "3306": "i * easy_fn(", "3307": "easy_fn(9", "3308": ", 26, 8, 65", "3309": ", 39, 43", "3310": ", 39, 43, 44", "3311": "nikale (25", "3312": ": -25", "3313": ", 9, 20]", "3314": "0, 10, 5", "3315": "0, 10, 5, 91", "3316": ", 19, 5", "3317": ", 19, 50, 4", "3318": "do_it([2", "3319": ": 117", "3320": ": -28", "3321": " aur 5", "3322": "ka sum 7", "3323": "ka sum 73 ho", "3324": "total_fn([3", "3325": ", 37], 73", "3326": "28 ho", "3327": "ka sum 31", "3328": "ka sum 31 ho", "3329": "57 aur ", "3330": "get_value(57", "3331": ": 20736", "3332": ", 3, 18", "3333": ", 26, 8, 90", "3334": "_fn([52", "3335": "* other", "3336": "* other_fn(", "3337": ", 37, 36", "3338": ": 155", "3339": "tool_fn(10", "3340": "0, 1, 25", "3341": "0, 1, 25, 12", "3342": "13, 52", "3343": "num_work(9", "3344": ", 73, 96", "3345": ", 22] me sab", "3346": ": 96", "3347": "38 de", "3348": "5, 15, 11", "3349": ", 71]", "3350": ": 40.", "3351": ", 21, 27", "3352": ", 21, 27, 24", "3353": "math_tool(25", "3354": "8, 48", "3355": ", 16, 18, 25", "3356": ", 26, 36", "3357": "ka sum 44", "3358": "ka sum 44 ho", "3359": "total_fn(a", "3360": ", 13, 33", "3361": ", 20, 13", "3362": "0, 38]", "3363": "2, 77", "3364": ", 84] me sab", "3365": ", 95, 74", "3366": ", 95, 74, 12", "3367": "total_fn(x", "3368": "0, 26, 21, 6", "3369": "4] se saare ", "3370": ", 28, 24]", "3371": "15 aur 9", "3372": "nikale ki 48", "3373": "quick_calc(4", "3374": "simple_fn(11", "3375": "basic_fn(4", "3376": ", 17, 24, 66", "3377": "15 aur 16", "3378": "first_fn(4", "3379": " likho jo 6", "3380": "37 ka GCD", "3381": ", 22, 19, 21", "3382": ", 9, 25", "3383": "first me se ", "3384": ", 83, 54", "3385": ", 32] me sab", "3386": ", 72, 36]", "3387": ", 40, 15", "3388": ", 32, 27, 26", "3389": "_fn([27", "3390": ": [40, 32", "3391": "2, 6", "3392": ", 94, 18", "3393": ", 94, 18, 40", "3394": "1 de", "3395": ": 33.8", "3396": " aur 24", "3397": "calc_fn(9", "3398": "total_fn([7", "3399": "23, 7", "3400": "16, 16", "3401": ": [32, 32", "3402": "55, 1", "3403": ", 20, 26, 27", "3404": "5 ho", "3405": ", 18, 14", "3406": ", 18, 14, 28", "3407": "my_func(10", "3408": "3, 3", "3409": ", 8, 11", "3410": ", 8, 11, 25", "3411": "get_value(37", "3412": "1 aur 7", "3413": "st [47", "3414": ", 71, 9]", "3415": "_fn([47", "3416": "other_fn(2", "3417": "nikale ki 21", "3418": "nikale (18", "3419": "7 = ", "3420": "11)", "3421": "97", "3422": ", 75, 67", "3423": ", 75, 67, 86", "3424": ", 86] me sab", "3425": ", 86]", "3426": "58, 406", "3427": "st [11, 9", "3428": ", 9, 16]", "3429": ": [22, 18", "3430": ", 26, 55]", "3431": "compute(n", "3432": "int(n ", "3433": "if n ", "3434": ": 121", "3435": "batae ki 49", "3436": "0, 2]", "3437": "my_func(8", "3438": ", 33, 10]", "3439": ": 125", "3440": ", 171", "3441": "44, 39", "3442": "batae ki 4", "3443": "batae ki 4 p", "3444": "test_fn(4", "3445": ", 80, 6", "3446": ", 80, 6, 89", "3447": ", 43, 98, 21", "3448": ", 8, 11, 19", "3449": "string 'dost", "3450": ": ts", "3451": ": tsod", "3452": ": 154", "3453": ", 81, 33", "3454": ", 81, 33, 63", "3455": ", 50, 43", "3456": "main_fn(a, b", "3457": "7 aur 17", "3458": "8, 20, 16", "3459": "result_fn(i", "3460": "result_fn(i ", "3461": ", 33, 83", "3462": ", 19, 96", "3463": ", 19, 96, 55", "3464": ", 23, 63", "3465": ", 23, 63, 79", "3466": "21, -1", "3467": "8, 2]", "3468": "0, 22, 19, 4", "3469": ", 24, 6, 21", "3470": "find_it([15", "3471": "batae ki 47", "3472": "0, 43, 15", "3473": ", 24, 97", "3474": ", 24, 97, 71", "3475": "und(tool_fn(", "3476": "check_fn(5", "3477": "8, 28, 49", "3478": "8, 46, 28", "3479": "check_fn(num", "3480": "4 de", "3481": "1, 79, 50", "3482": ", 97, 67, 72", "3483": "st [12, 15", "3484": ", 3, 7", "3485": "12, 15", "3486": "st [44, 5", "3487": ", 5, 42", "3488": "make_it(26", "3489": "result_fn(12", "3490": ", 55, 24", "3491": ", 55, 24, 98", "3492": "_fn([54", "3493": "7 aur -2", "3494": ": -19", "3495": ", 20, 31", "3496": ", 9, 17, 32", "3497": "check_fn(22", "3498": "0)", "3499": "st [5, 15", "3500": "tool_fn(6", "3501": "anna'", "3502": "84, 16", "3503": "84, 168", "3504": "ka sum 18", "3505": "ka sum 18 ho", "3506": ", 12, 13", "3507": ", 12, 13, 24", "3508": "easy_fn(x", "3509": ", 19, 10]", "3510": ", 14, 16", "3511": ", 14, 16, 17", "3512": "5, 4", "3513": "5, 4, 94", "3514": ", 40, 23, 17", "3515": ", 8, 39", "3516": ": [40", "3517": "likho jo 10", "3518": "compute(a, b", "3519": ", 12, 32]", "3520": ", 13, 3", "3521": "run_calc(10", "3522": "69, 20", "3523": "69, 207", "3524": "st [61", "3525": ", 97, 57", "3526": ", 30, 27, 63", "3527": ", 75, 17", "3528": "26 ka GCD", "3529": "check_fn('", "3530": ", 44, 25", "3531": ", 20, 12", "3532": "9, 64, 72", "3533": "apn", "3534": "apna ", "3535": "__", "3536": "..", "3537": "\"\n\nclass ", "3538": "Dog(", "3539": "Cat(", "3540": "To", "3541": "Tom", "3542": "u\")", "3543": "u\")\n", "3544": "Mis", "3545": ".name", "3546": ".name, ", "3547": ".so", "3548": ".sound(", "3549": "Chaap'", "3550": ": paahC", "3551": "work_fn(4", "3552": "nikale ki 51", "3553": ", 459", "3554": ", 75, 23, 6", "3555": "8, 78", "3556": "8, 78, 59]", "3557": "[77", "3558": ", 36, 4, 5", "3559": "0, 3, 49", "3560": ", 39, 7", "3561": ", 39, 7, 36", "3562": ": 288", "3563": ", 72, 61", "3564": "0, 31, 25", "3565": ": [30]", "3566": ", 16, 36, 49", "3567": ", 52] me sab", "3568": ", 52]", "3569": ", 41, 90, 4", "3570": ", 41, 90, 45", "3571": "value_fn(x", "3572": ", 12, 9", "3573": "17 ho", "3574": "3, 17", "3575": ": 51", "3576": ", 50, 31", "3577": ", 50, 31, 73", "3578": ", 77, 77", "3579": "_fn([69", "3580": ", 22, 5", "3581": ", 22, 5, 29", "3582": ": 134.6", "3583": ", 71, 25", "3584": ", -30", "3585": "4, 16", "3586": "4, 16, 22", "3587": "5, 13", "3588": "nikale ki 89", "3589": ", 801", "3590": ", 5, 95", "3591": ", 5, 95, 63", "3592": ", 78] me sab", "3593": "do_it([37", "3594": "avg_fn(7", "3595": "1, 30, 41", "3596": ": 75.2", "3597": ": 576", "3598": "6, 1", "3599": "tool_fn(5", "3600": ", 11, 67]", "3601": "[75", "3602": ", 23, 16, 5", "3603": "simple_fn(a", "3604": ", 7, 33, 85", "3605": "38)", "3606": ", 13, 82", "3607": ", 13, 82, 28", "3608": "7.4", "3609": "8, 20, 5", "3610": ", 11, 19, 19", "3611": ": 270", "3612": ", -18", "3613": "90, 810", "3614": ", 26, 30, 32", "3615": "ka sum 60", "3616": "ka sum 60 ho", "3617": "6, 89", "3618": "6, 89, 95", "3619": "solve_it([21", "3620": ": 140.0", "3621": "2, 8", "3622": "2, 8, 19", "3623": ", 82, 54", "3624": ", 64, 7, 25]", "3625": ": 52.5", "3626": ": 352", "3627": "33 de", "3628": ": 37", "3629": "-8 de", "3630": "14, 15", "3631": "33, 17", "3632": ", 4, 3", "3633": "0, 26, 6]", "3634": "the_answer(7", "3635": "quick_calc(3", "3636": ", 7, 12", "3637": ", 51, 82]", "3638": ", 34, 12", "3639": "0, 3, 15", "3640": ", 9, 14, 16", "3641": "ka sum 48", "3642": "ka sum 48 ho", "3643": ", 12, 21", "3644": ", 90, 60", "3645": ", 90, 60, 79", "3646": ", 31, 5", "3647": "first_fn(8", "3648": "sum_fn(42", "3649": "ka width 22", "3650": "nikale ki 22", "3651": ", 16, 15, 6", "3652": "99", "3653": ", 18, 9", "3654": ", 18, 94]", "3655": ": 41.", "3656": "17, 51", "3657": ", 42, 95", "3658": ", 42, 95, 91", "3659": ", 4, 2]", "3660": "72", "3661": "easy_fn(num", "3662": "easy_fn(6", "3663": "nikale (40", "3664": "13 = ", "3665": ": oiduts", "3666": "0, 2, 22, 14", "3667": ", 17, 13", "3668": ", 17, 13, 39", "3669": "st [49", "3670": ", 43, 3, 86", "3671": "do_it([1", "3672": ")\n\nprint(sum", "3673": "5, 35", "3674": ", 30, 16, 5", "3675": ", 1, 34", "3676": ", 1, 34, 19", "3677": ", 37, 2", "3678": "make_it(4", "3679": "compute([5", "3680": " aur q", "3681": "ka sum 23 ho", "3682": ", 17, 24, 27", "3683": "helper_fn([1", "3684": ": 48.2", "3685": ", 36, 24", "3686": "st [68", "3687": ", 36, 5", "3688": ", 36, 5, 67", "3689": ", 11] me sab", "3690": ", 29, 3, 8", "3691": ", 51, 35", "3692": ", 54, 90, 2", "3693": ", 252", "3694": ", 4, 37", "3695": "make_it(9", "3696": "0, 47", "3697": "0, 47, 15", "3698": "11, 9", "3699": "15, 9", "3700": ": 122.0", "3701": ", 56, 29", "3702": "work_fn([3", "3703": "8, 34]", "3704": "second_fn ho", "3705": ", 13, 16, 36", "3706": "other_fn([12", "3707": ", 22, 35", "3708": "0, 13, 7", "3709": ", 14, 38]", "3710": "calc_fn(num ", "3711": ", 13, 28, 2", "3712": ", 13, 28, 20", "3713": ", 62, 23", "3714": "_fn('level'", "3715": ", 36, 34, 59", "3716": "-4)", "3717": ": 138", "3718": "make_it(i", "3719": "0, 2, 4, 4", "3720": ", 15, 25", "3721": "ka sum 34", "3722": "ka sum 34 ho", "3723": ", 35, 32", "3724": ", 35, 32, 35", "3725": ", 1, 33", "3726": ", 1, 33, 19", "3727": "8, 74", "3728": "8, 74, 8", "3729": "8, 74, 80, 3", "3730": "8, 58]", "3731": ": 63.6", "3732": ", 38, 27, 48", "3733": ", 54, 73", "3734": "total_fn(4", "3735": "sum_fn(20", "3736": ", 67, 44", "3737": ": 294", "3738": "st [4, 6", "3739": ", 20, 30]", "3740": "likho jo 27", "3741": "num_work ho", "3742": "num_work(27", "3743": ", 1, 5", "3744": ", 1, 5, 17", "3745": ", 16, 23", "3746": "basic_fn(37", "3747": "-27", "3748": "58, 34", "3749": "0, 87, 45]", "3750": "1 jodkar ", "3751": "sum_fn(17", "3752": ", 9, 30, 1", "3753": ", 9, 30, 11", "3754": ", 14, 6, 21", "3755": "9, 46, 90, 4", "3756": "7, 77", "3757": ", 25, 71", "3758": ", 25, 71, 95", "3759": ", 13, 13", "3760": ", 13, 13, 2", "3761": ", 232", "3762": "52, 26", "3763": ", 52, 3", "3764": ", 52, 3, 6", "3765": ", 19] me sab", "3766": "8, 43", "3767": "8, 43, 54", "3768": "35, 14", "3769": "[7, 19", "3770": "do_math([21", "3771": "8, 79", "3772": "8, 79, 68", "3773": ", 40] me sab", "3774": ", 11, 34, 23", "3775": ", 19, 16", "3776": ", 19, 16]", "3777": ": [18, 2", "3778": "main_fn('", "3779": ", -20", "3780": ", 7, 6, 9", "3781": ": [10, 1", "3782": ", 97, 4", "3783": ", 97, 40, 21", "3784": ", 30, 39, 4", "3785": ", 33, 3", "3786": "0, 23, 17, 2", "3787": ", 30, 14]", "3788": ", 1, 3, 26", "3789": ": 113", "3790": ", 21, 6, 26", "3791": " - 35", "3792": " - 35 = ", "3793": " - 35 = -1", "3794": "26 ho", "3795": ", 12, 46", "3796": ", 5, 24, 6", "3797": "0, 26, 16]", "3798": ", 4, 90", "3799": ", 4, 90, 66", "3800": ", 16, 11, 4", "3801": "88, 7", "3802": "88, 792", "3803": "solve_it(8", "3804": "work_fn(3", "3805": ", 24, 43", "3806": ", 24, 43, 5", "3807": "test_fn('", "3808": ", 14, 9, 19", "3809": ", 9, 11, 34", "3810": ", 40, 43", "3811": ": 162", "3812": "0, 32, 13", "3813": ", 46] me sab", "3814": "0, 19, 40", "3815": ", 89, 80]", "3816": ", 54, 55", "3817": ", 54, 55, 65", "3818": ", 5, 23]", "3819": ", 31, 27, 27", "3820": "8, 68, 7", "3821": "8, 68, 76, 6", "3822": "8, 24, 7, 11", "3823": ", 12, 2, 15", "3824": "5, 5", "3825": "0, 23, 26", "3826": ", 73, 3", "3827": ", 73, 3, 93", "3828": ", 4, 82]", "3829": ", 6, 32, 35", "3830": ", 4, 19, 8", "3831": ", 37, 50, 37", "3832": ", 30, 51", "3833": ", 30, 51, 56", "3834": "20 de", "3835": "st [20, 25", "3836": ", 56, 51", "3837": ", 56, 51, 75", "3838": ", 38, 10]", "3839": ", 16, 3", "3840": "15, 16", "3841": "6, 53", "3842": "6, 53, 49", "3843": ", 84, 95", "3844": ": -26", "3845": ": -44", "3846": ", 79, 70, 1", "3847": ", 67, 67", "3848": ", 67, 67, 91", "3849": ", 30, 34]", "3850": ", 20, 35", "3851": ", 20, 35, 32", "3852": ", 74, 53]", "3853": ", 8, 17]", "3854": "0, 22, 21", "3855": ", 74, 61", "3856": ", 65, 59", "3857": ", 65, 59, 26", "3858": ", 91, 60", "3859": "27, 24", "3860": "27, 243", "3861": "8, 28, 55", "3862": ", 12, 50", "3863": ", 12, 50, 8", "3864": ", 17, 15, 39", "3865": ", 23, 18", "3866": ", 23, 18, 18", "3867": ", 19, 95", "3868": ", 19, 95, 59", "3869": "ka width 19", "3870": "1, 5, 9", "3871": "1, 5, 9, 41", "3872": ", 86, 22]", "3873": "total_fn(9", "3874": "find_it(7", "3875": "basic_fn(-4", "3876": ", 15, 23", "3877": ", 20, 27, 85", "3878": "nikale ki 61", "3879": ", 7, 44", "3880": ", 7, 44, 9", "3881": ": 172", "3882": ", 67, 1", "3883": ", 67, 100", "3884": ", 63, 70]", "3885": ", 16, 97", "3886": "value_fn([3", "3887": ", 30, 38", "3888": ", 20, 23", "3889": ", 7, 20, 2", "3890": ", 7, 20, 29", "3891": ", 1, 28", "3892": ", 1, 28, 34", "3893": ", 32, 17", "3894": ", 32, 17, 22", "3895": "2, 53, 99", "3896": ", 14, 18", "3897": ", 14, 18, 97", "3898": "0, 28, 81", "3899": "basic_fn([8", "3900": "find_it(num", "3901": "find_it(11", "3902": "47, 94", "3903": "17, 17", "3904": "batae ki 15", "3905": ", 75, 78", "3906": ", 5, 40", "3907": ", 5, 40, 5", "3908": ", 33, 40, 3", "3909": "0, 10, 40, 1", "3910": "8, 25", "3911": ", 10, 32", "3912": ", 48, 67", "3913": ", 48, 67, 53", "3914": ", 3, 9", "3915": ", 43, 20", "3916": ", 90, 2, 97", "3917": "_fn([32", "3918": ", 76, 48", "3919": ", 76, 48, 18", "3920": ", 64, 82", "3921": ", 10, 5, 1", "3922": "solve_it([4", "3923": ", 16, 20, 2", "3924": ", 16, 20, 22", "3925": "2, 4, 17", "3926": ", 18, 23, 27", "3927": ", 4, 24, 33", "3928": ", 34, 35]", "3929": ", 19, 22, 29", "3930": ", 38, 47", "3931": ", 4, 38, 26]", "3932": ": 93", "3933": ", 40, 100", "3934": ", 40, 100, 8", "3935": ", 97, 65", "3936": ", 25, 57", "3937": ", 25, 57, 15", "3938": "check_fn(6", "3939": "tool_fn(7", "3940": ", 12, 20, 2", "3941": ", 12, 45, 39", "3942": ", 77, 15", "3943": ", 85, 17", "3944": ", 89, 10", "3945": ", 39, 25", "3946": "0, 43, 4", "3947": ", 16, 18, 36", "3948": ", 45, 78", "3949": " aur 21", "3950": ", 67, 32", "3951": ", 67, 32, 5", "3952": ", 17, 2", "3953": ", 10, 13, 3", "3954": "18, 24", "3955": "run_calc([12", "3956": ", 20, 26, 28", "3957": "6, 6, 63, 1", "3958": ", 30, 37, 33", "3959": ", 36, 4, 29", "3960": "simple_fn([6", "3961": ", 16, 15, 32", "3962": ", 2, 17, 3", "3963": "14, 98", "3964": "st [24, 24", "3965": ", 39, 34", "3966": ": [24, 24", "3967": ", 44, 48", "3968": ", 44, 48, 13", "3969": "83, 3", "3970": "83, 332", "3971": "1, 11, 50]", "3972": "simple_fn(14", "3973": ", 50, 41", "3974": ", 25, 14", "3975": ", 25, 14, 88", "3976": ", 94, 82]", "3977": "8, 10]", "3978": ", 97, 3", "3979": ": -12", "3980": ", 88, 7", "3981": ", 88, 70, 4", "3982": ", 88, 70, 49", "3983": ", 59, 60", "3984": ", 59, 60, 95", "3985": ", 1, 36", "3986": ", 31, 7", "3987": ", 31, 7, 21", "3988": ", 36, 39, 29", "3989": ", 7, 31", "3990": ", 7, 31, 3", "3991": "20 aur 8", "3992": "20, 8", "3993": ": 160", "3994": "32, 12", "3995": "20, 80", "3996": "find_it ho", "3997": ", 18, 23", "3998": ", 4, 38, 29", "3999": ", 25, 26", "4000": "8, 95", "4001": "8, 95, 64", "4002": ", 71, 48", "4003": "my_func(4", "4004": ", 22, 23, 17", "4005": ", 40, 32]", "4006": ", 38, 3", "4007": ", 38, 3, 2", "4008": ": [38, 2", "4009": ", 18, 5, 5", "4010": ", 18, 37", "4011": ", 18, 37, 94", "4012": ", 5, 96", "4013": ", 5, 96, 70]", "4014": ", 427", "4015": ", 6, 23", "4016": ", 6, 23, 42", "4017": ", 9, 8", "4018": ", 23, 20, 2", "4019": ", 43, 74", "4020": ", 43, 74, 56", "4021": ", 42, 63, 1", "4022": ", 26, 89", "4023": ", 26, 89, 29", "4024": ", 51, 98]", "4025": ", 1, 3, 4", "4026": ", 22, 9, 72", "4027": ", 3, 13", "4028": ", 3, 13, 61", "4029": ", 20, 10]", "4030": "7, 27, 86", "4031": ", 81, 47", "4032": ", 26, 11, 34", "4033": "2, 35", "4034": ", 14, 26, 27", "4035": "0, 2, 18", "4036": ", 19, 11]", "4037": ", 24, 22, 23", "4038": "18, 72", "4039": "2, -13", "4040": ", 88, 90", "4041": ", 88, 90, 75", "4042": ", 66, 95", "4043": "70, 56", "4044": ", 30, 63", "4045": ", 30, 63, 18", "4046": ", 420", "4047": ", 13, 31", "4048": ", 13, 31, 39", "4049": ", 30, 10, 37", "4050": ", -22", "4051": ", 30, 9", "4052": ", 30, 9, 5", "4053": ", 13, 29", "4054": ", 13, 29, 21", "4055": ", 9, 27", "4056": ", 9, 27, 34", "4057": "7, 11, 22", "4058": ", 12, 3", "4059": ", 12, 3, 3", "4060": "ka width 11", "4061": ", 5, 46", "4062": ", 5, 46, 62", "4063": ", 31, 13", "4064": ", 93, 36", "4065": "85, 4", "4066": "85, 425", "4067": ", 97, 18]", "4068": ", 77, 43, 3", "4069": "5, 2, 81, 62", "4070": ", 77, 43", "4071": ", 77, 43, 3]", "4072": "83 aur 8", "4073": "83 aur 86", "4074": "num_work(83", "4075": ", 98, 84, 1]", "4076": "test_fn(num", "4077": "test_fn(num ", "4078": "3 aur 34", "4079": "test_fn(43", "4080": "7 aur -13", "4081": "calc_fn(-7", "4082": "-2, 0", "4083": "-45 de", "4084": "-22, ", "4085": "-22, -23", "4086": ": -45", "4087": "result_fn(42", "4088": ", 20, 7, 26", "4089": "do_it([22", "4090": ", 20, 7, 26]", "4091": ": [22, 18, 2", "4092": "6, 20, 2", "4093": "6, 20, 26]", "4094": " aur 23", "4095": "check_fn(24", "4096": "43 aur ", "4097": "43 aur 42", "4098": "43, 42", "4099": "test_fn([9", "4100": ": 82.0", "4101": "st [10, 27", "4102": "ka sum 66", "4103": "ka sum 66 ho", "4104": "_fn([10, 27", "4105": "Namaste'", "4106": ": etsamaN", "4107": "calc_total(0", "4108": "nikale (43", "4109": " - 37 = 6)", "4110": "my_func(43", "4111": "get_value(26", "4112": ": 754", "4113": "num * do_it(", "4114": "do_it(5", "4115": ": 11, -29", "4116": "11, -29", "4117": ": idnih", "4118": "compute([22", "4119": ", 6, 9, 19]", "4120": "8 aur 9", "4121": "calc_fn(i, j", "4122": "calc_fn(58", "4123": "value_fn([8", "4124": ", 9, 14]", "4125": ": 112", "4126": "compute(i", "4127": "i * compute(", "4128": "calc_fn(26", "4129": "37, 67, 33", "4130": "get_result(6", "4131": "ka sum 53", "4132": "ka sum 53 ho", "4133": "sum_fn([19", "4134": ", 35], 53", "4135": "30 aur 28", "4136": ", 23] me sab", "4137": ": [6, 38, 2", "4138": "make_it(35", "4139": ": 95.0", "4140": ": [26, 8", "4141": ", 20, 14", "4142": "likho jo 11", "4143": "avg_fn(11", "4144": "st [19, 5, 6", "4145": "total_fn([19", "4146": ", 5, 6, 2", "4147": ": [38, 10, 1", "4148": "2, 4, 34]", "4149": "my_func([1", "4150": ", 14, 1, 19]", "4151": "get_value(x", "4152": "get_value(x ", "4153": ", 35, 33", "4154": "check_fn([23", "4155": ", 35, 33]", "4156": ", 8, 33, 51]", "4157": "0, 40, 1]", "4158": "helper_fn(54", "4159": "check_fn([34", "4160": "1, 5, 11, 18", "4161": "do_math(i", "4162": "do_math(29", "4163": "solve_it([36", "4164": ": 126", "4165": "60, 83, 94", "4166": "result_fn([5", "4167": ": 64.5", "4168": "do_math(17", "4169": "st [10, 19", "4170": "10, 19", "4171": ": [10, 36", "4172": "simple_fn(57", "4173": ", 228", "4174": "helper_fn(82", "4175": "result_fn([3", "4176": ", 12, 25]", "4177": "my_func(48", "4178": "6 aur 34", "4179": "calc_fn(46", "4180": "compute([63", "4181": ": 36.", "4182": "Coding'", "4183": ": gnidoC", "4184": "10 aur 13", "4185": "sum_fn(1", "4186": ": 130", "4187": " - 12 = 29", "4188": " - 12 = 29)", "4189": "do_it(41", "4190": "do_it(41, 12", "4191": "aur y", "4192": ". Example: 0", "4193": "check_fn(0", "4194": " likho jo 18", "4195": ": 64.4", "4196": "st [50, 34", "4197": "50, 34", "4198": "50, 34, 27]", "4199": "my_func(num", "4200": "9 aur 0", "4201": "-9, 0", "4202": "1, 3, 16, 8", "4203": "1, 3, 16, 8]", "4204": ": [40, 22", "4205": ", 6, 32, 16]", "4206": "num_fn(29", "4207": ", 174", "4208": ", 9, 35, 8", "4209": ", 9, 35, 8]", "4210": ": [36, 12", "4211": "12 aur 4", "4212": "8 aur 91", "4213": "result_fn(38", "4214": "calc_fn(42", "4215": "st [91", "4216": "run_calc([91", "4217": "basic_fn(3", "4218": " likho jo 68", "4219": "my_func(68", "4220": ", 30, 17]", "4221": "math_tool(-4", "4222": "_fn('Jaldi'", "4223": ": [8, 6", "4224": ": [8, 6, 20", "4225": "main_fn(8", "4226": "process([5", "4227": "19 aur 13", "4228": "jaise 2 aur ", "4229": "do_it(2", "4230": "do_it(2, 12", "4231": "ka sum 35", "4232": "ka sum 35 ho", "4233": "], 35", "4234": ", 8, 7, 16", "4235": ", 8, 7, 16]", "4236": ", 30, 16, 14", "4237": "result_fn(13", "4238": ": 129.2", "4239": "easy_fn(3", "4240": "14 aur 6", "4241": "num_fn(14", "4242": "num_fn(14, 6", "4243": "19 aur 9", "4244": "solve_it(19", "4245": ": 171", "4246": "st [80", "4247": "do_math(lst", "4248": "do_math([80", "4249": "helper_fn(-9", "4250": "fast_calc(20", "4251": "simple_fn(9", "4252": "35 aur ", "4253": "35 aur 15", "4254": "sum_fn(35", "4255": ", 14, 6, 4", "4256": ", 12, 8, 38]", "4257": "get_value(42", "4258": "make_it(46", "4259": ": 114.8", "4260": "st [40, 27", "4261": ": 164", "4262": "sum_fn(6, 30", "4263": "do_math(8", "4264": ": -30", "4265": "do_it(81", "4266": "second_fn(35", "4267": "81, 33, 23", "4268": "find_it([37", "4269": ": [20", "4270": ": [20, 4", "4271": ": [20, 4, 1", "4272": "0, 40]", "4273": ", 40, 39", "4274": "result_fn([2", "4275": ", 40, 39]", "4276": ": [2, 30, 6", "4277": "41 aur 8", "4278": "41 aur 89", "4279": "second_fn(41", "4280": "tool_fn(i, j", "4281": "i, j = ", "4282": "i, j = j", "4283": "i, j = j, ", "4284": "i, j = j, i ", "4285": "% j", "4286": "i\n\nprint(", "4287": "easy_fn(a", "4288": "a * easy_fn(", "4289": ", 32, 27, 12", "4290": "first_fn([10", "4291": ": [10, 6", "4292": ", 20, 32", "4293": "1 aur 41", "4294": "basic_fn(71", "4295": "value_fn(a ", "4296": " likho jo 19", "4297": "19, 35", "4298": "avg_fn(44", "4299": ": 111.2", "4300": "st [31, 79", "4301": "1, 79, 22", "4302": ", 14, 29, 27", "4303": ": [40, 14]", "4304": "nikale (3", "4305": "nikale (37 ", "4306": "- 42", "4307": "- 42 = -", "4308": "- 42 = -5)", "4309": "make_it(37", "4310": "math_tool(8", "4311": ", 11, 35", "4312": ", 11, 35]", "4313": ": [20, 2", "4314": ": [20, 24]", "4315": ": 69.8", "4316": "sum_fn([9", "4317": "fast_calc(55", "4318": "st [6, 12", "4319": "st [6, 12, 5", "4320": "6, 12", "4321": "6, 12, 5]", "4322": ": [12, 24", "4323": "12 aur 17", "4324": ": 204", "4325": ", 9, 37]", "4326": ", 30] me sab", "4327": "check_fn([84", "4328": "n * avg_fn(", "4329": "avg_fn(4", "4330": "solve_it(25", "4331": "second_fn(4", "4332": "18 aur 10", "4333": "basic_fn(18", "4334": ", 47, 2]", "4335": "5, -1", "4336": "my_func(25", "4337": "42 aur 70", "4338": "tool_fn(u, v", "4339": "run_calc(2", "4340": ", 16, 14, 18", "4341": "check_fn([19", "4342": ": [38, 32", "4343": ", 28, 36]", "4344": "13, 34, 31]", "4345": "process(a", "4346": "a * process(", "4347": "process(9", "4348": "9 aur 85", "4349": "9, 85", "4350": "batae ki 6", "4351": "batae ki 6 p", "4352": "num_fn(-1", "4353": "19 aur 16", "4354": ": 304", "4355": "16 aur 63", "4356": "check_fn(16", "4357": "18, 34, 72", "4358": ": 55.6", "4359": "ka width 30", "4360": ": 480", "4361": ", 13, 15, 16", "4362": "16, 13, 15", "4363": "find_it([14", "4364": ", 1, 16, 6", "4365": ": [28, 2", "4366": ": [28, 2, 32", "4367": ", 12, 18]", "4368": "20 aur 7", "4369": ": 140", "4370": "second_fn(44", "4371": "work_fn(92", "4372": ": 46.4", "4373": "do_it(32", "4374": "total_fn([18", "4375": ", 22, 66]", "4376": "st [13, 39", "4377": ", 5, 64", "4378": ", 39, 5, 6", "4379": ", 39, 5, 64]", "4380": "1 aur 45", "4381": "num_fn(21", "4382": "st [21, 9, 6", "4383": "_fn([21", "4384": ": [6, 40]", "4385": "sum_fn(num ", "4386": "sum_fn(3", "4387": "run_calc(a", "4388": "run_calc(a ", "4389": "run_calc(7", "4390": "tool_fn(p, q", "4391": "tool_fn(2", "4392": ", 8, 4, 14", "4393": ", 8, 4, 14]", "4394": ": [30, 4, 16", "4395": ", 8, 28]", "4396": "num_work(a", "4397": "num_work(41", "4398": "7 aur 31", "4399": "tool_fn(27", "4400": ": 575", "4401": ", 28, 34, 39", "4402": ", 39], 64", "4403": "batae ki 23", "4404": "nikale ki 7", "4405": "total_fn(12", "4406": "26, 10", "4407": "26, 104", "4408": ": 522", "4409": ": 45.6", "4410": "total_fn([1", "4411": ", 20, 24]", "4412": "num_work(55", "4413": ": 168", "4414": " likho jo 41", "4415": "do_math(41", "4416": ": 105.8", "4417": ": 63.2", "4418": "run_calc(arr", "4419": "run_calc([37", "4420": ": 32.", "4421": ": 14 aur 14", "4422": "15 aur 10", "4423": "63 aur 3", "4424": "63, 3", "4425": "_fn('Studio'", "4426": "solve_it([59", "4427": ": 52.8", "4428": "st [1, 18, 5", "4429": "solve_it([1", "4430": ", 18, 5, 4]", "4431": ": [2, 36", "4432": ": [2, 36, 10", "4433": "num_fn(25", "4434": ": 525", "4435": ": 228", "4436": "result_fn(x", "4437": "result_fn(x ", "4438": "do_math(x", "4439": "x * do_math(", "4440": "i * sum_fn(", "4441": "aur b", "4442": ": -18, -14", "4443": "-18, -14", "4444": "sum_fn(53", "4445": "num_fn(7, 9", "4446": "make_it(6", "4447": ": -13", "4448": "jaise 9 aur ", "4449": "26 aur 1", "4450": ", 28], 36", "4451": "calc_fn([8", "4452": "54, 324", "4453": "do_math(-4", "4454": "first_fn([6", "4455": ": 46.1", "4456": ", 13, 26, 6", "4457": "24, 43, 41", "4458": ", 13, 26, 6]", "4459": ": 153", "4460": "basic_fn(17", "4461": "sum_fn(70", "4462": "8 aur 21", "4463": "18, 21", "4464": "basic_fn(40", "4465": ": 104", "4466": ": 104.0", "4467": ", 11, 34, 35", "4468": "8 aur 8", "4469": "sum_fn(48", "4470": "sum_fn(48, 8", "4471": ", 20, 19, 4", "4472": ", 20, 19, 4]", "4473": ": [8", "4474": ": [8, 40, 3", "4475": ": [8, 40, 38", "4476": "st [40, 36", "4477": "0, 36, 4", "4478": "0, 36, 48]", "4479": ": 124", "4480": "13 aur 1", "4481": "a naam other", "4482": "_fn ho", "4483": "tool_fn(53", "4484": "st [7, 7, 3", "4485": "get_value([7", "4486": ", 7, 3, 14]", "4487": ": [14, 14, 6", "4488": "96 aur ", "4489": "96 aur 98", "4490": "process(96", "4491": "math_tool(47", "4492": ": 116", "4493": ": 116.6", "4494": "do_math([8", "4495": "6, 6, 73", "4496": "do_it([21", "4497": ": 61.", "4498": ": 61.4", "4499": "tool_fn(43", "4500": "make_it(n, m", "4501": "20 aur 10", "4502": ": 58.0", "4503": "basic_fn(11", "4504": ", 14] me sab", "4505": ", 48, 16", "4506": ", 48, 16]", "4507": ": 158", "4508": ": 54.8", "4509": "1 aur 94", "4510": "first_fn(91", "4511": "13, 98, 21", "4512": "14 aur 52", "4513": "run_calc(14", "4514": "main_fn(a", "4515": "main_fn(21", "4516": "process(28", "4517": ": 252", "4518": "process(34", "4519": "33, 56, 33", "4520": ": 33.2", "4521": "easy_fn([8", "4522": ": 58.6", "4523": " - 44", "4524": " - 44 = -2", "4525": " - 44 = -24", "4526": " - 44 = -24)", "4527": "test_fn(20", "4528": "[71, 23, 10", "4529": " aur 10", "4530": "process(-2", "4531": ": 45.75", "4532": "_fn([40, 3", "4533": "do_it(87", "4534": "compute(4", "4535": "compute(4, 4", "4536": ": 256", "4537": "make_it(a", "4538": "make_it(10", "4539": "get_value(29", "4540": "run_calc([13", "4541": ", 14, 5, 7", "4542": ", 10, 14", "4543": "run_calc(59", "4544": ": 138.", "4545": ": 138.2", "4546": "do_it([24", "4547": ": 27.", "4548": "6 aur 7", "4549": "6 aur 71", "4550": "test_fn(76", "4551": "make_it([5", "4552": "9 aur 64", "4553": "calc_fn(a, b", "4554": "10 jodkar 11", "4555": "nikale (5", "4556": " - 37 = -", "4557": " - 37 = -32)", "4558": ", 41, 17", "4559": ", 41, 17]", "4560": "process(59", "4561": "st [69, 28", "4562": "69, 28", "4563": ": 62.", "4564": ": 62.4", "4565": "19 aur 15", "4566": "run_calc(19", "4567": ": 285", "4568": "find_it([75", "4569": ", 89, 47]", "4570": "st [12, 21", "4571": "calc_fn([12", "4572": "compute(a", "4573": "42 aur 8", "4574": "42 aur 88", "4575": "value_fn(42", "4576": "15 aur 5", "4577": "main_fn(15", "4578": "ka sum 6", "4579": "ka sum 62 ho", "4580": ", 10, 25, 27", "4581": ", 41, 46, 11", "4582": "make_it([36", "4583": "my_func(53", "4584": "7 aur 88", "4585": "compute(u, v", "4586": "compute(7", "4587": "compute(77", "4588": ", 87, 2]", "4589": ", 70, 14", "4590": ", 70, 14]", "4591": "basic_fn([9", "4592": ", 28, 34]", "4593": "st [2, 11", "4594": ": 101", "4595": ", 84, 26]", "4596": "15 aur 1", "4597": "basic_fn(15", "4598": "tool_fn(41", "4599": "total_fn(84", "4600": "second_fn(14", "4601": "process(58", "4602": "9 - 29", "4603": "9 - 29 = ", "4604": "9 - 29 = 20", "4605": "9 - 29 = 20)", "4606": "do_it(49", "4607": "do_it(49, 29", "4608": "0, 41, 44", "4609": "do_math([15", "4610": "0, 41, 44]", "4611": "10 aur 10", "4612": "avg_fn(10, 1", "4613": "process([15", "4614": "helper_fn(a", "4615": "helper_fn(43", "4616": "st [95", "4617": "compute([95", "4618": ", 94, 83]", "4619": "jaise 29", "4620": "solve_it(x", "4621": "solve_it(x ", "4622": ": -30, 30", "4623": "basic_fn(-3", "4624": "make_it([100", "4625": ", 97, 24", "4626": "value_fn([5", "4627": "value_fn([59", "4628": ", 97, 24]", "4629": "13 aur 14", "4630": "compute(13", "4631": "13 aur 19", "4632": ": 247", "4633": "check_fn([2", "4634": ": -4, 14", "4635": "other_fn(-4", "4636": "do_math(a, b", "4637": "do_math(4", "4638": "simple_fn(15", "4639": "find_it([4", "4640": ": [8, 22", "4641": ": [8, 22, 16", "4642": ", 26, 18]", "4643": ": [38, 20]", "4644": "do_it(10, 5", "4645": "num_work([33", "4646": ", 85, 23, 69", "4647": ": 23", "4648": "num_fn(26", "4649": "likho jo 12 ", "4650": ": 53.6", "4651": "93, 81, 77]", "4652": ": 83.", "4653": "process([17", "4654": ": [34, 10, 1", "4655": "6, 14, 28]", "4656": "[7, 11, 12]", "4657": "tool_fn(val", "4658": "tool_fn(8", "4659": "process(5", "4660": "process(5, 2", "4661": ": [4, 2", "4662": ": [4, 2, 12", "4663": "st [3, 2, 17", "4664": ": [6, 4", "4665": ": [6, 4, 34", "4666": ", 20, 6]", "4667": ", 32, 37", "4668": "1, 7, 10, 27", "4669": ", 32, 37]", "4670": "fast_calc(i", "4671": "fast_calc(i ", "4672": "other_fn(18", "4673": ": 234", "4674": "do_it([94", "4675": ", 26, 8, 65]", "4676": ", 30, 7", "4677": "value_fn([18", "4678": ", 30, 7]", "4679": ": 181", "4680": "helper_fn(n", "4681": "helper_fn(n ", "4682": "helper_fn(5", "4683": " - 50", "4684": " - 50 = -2", "4685": " - 50 = -25)", "4686": "find_it(25", "4687": ", 88] me sab", "4688": " likho jo a ", "4689": ": 15 aur 40", "4690": "15, 40", "4691": "test_fn(24", "4692": ": 696", "4693": "nikale (1", "4694": "nikale (1 - ", "4695": "29 = -2", "4696": "29 = -28", "4697": "29 = -28)", "4698": "helper_fn(1", "4699": "27 aur 5", "4700": "calc_fn(n, m", "4701": "calc_fn(27", "4702": ": 11 aur ", "4703": ": 11 aur 20", "4704": "do_it(11", "4705": "do_it(11, 20", "4706": "num_fn(93", "4707": "first_fn(25", "4708": "st [3, 6, 21", "4709": ", 34, 36, 37", "4710": "compute(17", "4711": ": 476", "4712": "st [4, 8, 12", "4713": "avg_fn([4", "4714": "avg_fn([4, 8", "4715": ", 12, 19", "4716": ", 31], 31", "4717": "57 aur 4", "4718": ": 57", "4719": ", 3, 18, 11", "4720": "basic_fn([17", "4721": ": [34, 6", "4722": ": [34, 6, 36", "4723": ", 22, 24]", "4724": "8 aur 67", "4725": "sum_fn(98", "4726": "other_fn(n", "4727": "9 aur 63", "4728": "get_value(49", "4729": " likho jo p", "4730": "9 aur 43", "4731": "math_tool(19", "4732": "my_func(7, 9", "4733": "num_fn(6", "4734": "6 ke liye ", "4735": "do_math(96", "4736": ", 16, 5, 47", "4737": "process([14", "4738": ", 16, 5, 47]", "4739": "do_math(23", "4740": ": 184", "4741": "tool_fn('", "4742": ": [30, 12]", "4743": "17 aur 1", "4744": "17, 1", "4745": "do_it(13, 52", "4746": "6 aur 27", "4747": "run_calc(-16", "4748": "num_work([3", "4749": ", 12, 10]", "4750": "num_work(x", "4751": "num_work(x ", "4752": "num_fn(4", "4753": "value_fn(41", "4754": "get_value(9", "4755": "93, 73, 96", "4756": " aur 49", "4757": ": -42", "4758": "likho jo -23", "4759": " aur -15", "4760": "test_fn ho", "4761": "test_fn(-23", "4762": ", -15", "4763": "easy_fn(n", "4764": "n * easy_fn(", "4765": "easy_fn(8", "4766": "compute(arr", "4767": "compute([6", "4768": ": 40.5", "4769": " likho jo 25", "4770": "10 aur 2", "4771": "avg_fn(10, 2", "4772": "8 aur 48", "4773": "second_fn([1", "4774": ", 26, 36]", "4775": "jaise -25", "4776": "do_math(-2", "4777": "do_math(-25", "4778": "total_fn(53", "4779": "37, 13, 33", "4780": ", 20, 13, 38", "4781": ": [20, 38]", "4782": "st [92, 77", "4783": "other_fn([9", "4784": "2, 77, 3, 8", "4785": ": 48.8", "4786": "_fn('chaap'", "4787": "total_fn(x ", "4788": "total_fn(5", "4789": "sum_fn(-", "4790": "sum_fn(-5", "4791": ": 23.", "4792": ": 23.0", "4793": "_fn('sarkar'", "4794": "tool_fn(6, 3", "4795": "num_fn(32", "4796": ": 89.6", "4797": ": [30, 26, 6", "4798": "other_fn(48", "4799": ", 384", "4800": "nikale (11", "4801": " - 5", "4802": " - 5 = 6)", "4803": "[35", "4804": ": 34.6", "4805": "_fn('Hindi'", "4806": "do_math(69", "4807": "st [17, 41", "4808": "run_calc([17", "4809": ", 41, 36", "4810": ", 9, 25, 35", "4811": "value_fn([13", "4812": ", 9, 25, 35]", "4813": ": [22]", "4814": "2 aur 14", "4815": "0 aur 48", "4816": "basic_fn(20", "4817": "process(2, 2", "4818": ": 64.0", "4819": "avg_fn(2, 6", "4820": ": 52.4", "4821": "9 aur 8", "4822": "9 aur 86", "4823": "total_fn(69", "4824": "90 aur 24", "4825": "st [7, 21", "4826": ", 28, 34, 36", "4827": ", 21, 28, 34", "4828": ", 36], 57", "4829": "jaise 23", "4830": "16, 16, 18]", "4831": "55, 110", "4832": "ka sum 55 ho", "4833": "total_fn([5", "4834": ", 35, 36]", "4835": "batae ki 19", "4836": "main_fn(val", "4837": "main_fn(19", "4838": "st [31, 5", "4839": "_fn([31, 5", "4840": ": [18, 14", "4841": "10 aur -19", "4842": ", 27, 32", "4843": "make_it([3", "4844": ", 27, 32]", "4845": ": 41.0", "4846": "st [16, 16", "4847": ", 13, 19, 4", "4848": "16, 16, 13", "4849": ", 19, 4]", "4850": ", 26, 38", "4851": ", 26, 38, 8]", "4852": "1 aur 73", "4853": "num_work(91", "4854": ": -36", "4855": "44 aur ", "4856": "44 aur 1", "4857": "result_fn(44", "4858": "check_fn(21", "4859": " - 7 = ", "4860": " - 7 = 11)", "4861": "18, 7", "4862": "26 aur 97", "4863": "avg_fn(26", "4864": "st [40, 87", "4865": "_fn([40", "4866": "_fn([40, 87", "4867": "a * num_fn(", "4868": "num_fn(3", "4869": "make_it([4", "4870": ": 39.5", "4871": ", 48, 47, 37", "4872": "batae ki 8", "4873": "batae ki 8 p", "4874": "avg_fn(34", "4875": "11, 2", "4876": "math_tool(49", "4877": "simple_fn(24", "4878": "the_answer(a", "4879": " aur 9", "4880": "process(7, 9", "4881": "st [6, 9, 19", "4882": "other_fn([6", "4883": ", 10, 1]", "4884": ": [12, 18", "4885": ", 38, 20, 2]", "4886": "my_func(n", "4887": "n * my_func(", "4888": "run_calc(n", "4889": "run_calc(n ", "4890": ": 125.6", "4891": "basic_fn(57", "4892": "44, 396", "4893": "test_fn(i", "4894": "ka sum 19 ho", "4895": "result_fn([7", "4896": ", 36], 19", "4897": "11 aur 14", "4898": "do_math(11", "4899": ", 50, 43, 43", "4900": "quick_calc(6", "4901": "54 aur 8", "4902": "54 aur 83", "4903": "main_fn(54", "4904": "num_fn(97", "4905": "8 aur 2", "4906": "result_fn(8", "4907": "us 11", "4908": "us 11 hai", "4909": "11), 2", "4910": ": 380.", "4911": ": 380.13", "4912": "st [98", "4913": "98, 33, 83", "4914": "run_calc([52", "4915": "jaise 21", "4916": " aur -10", "4917": "21, -10", "4918": "2 aur 77", "4919": "avg_fn(92", "4920": ": 92", "4921": ", 20, 19, 1", "4922": ", 20, 19, 1]", "4923": ": [6, 40, 3", "4924": "fast_calc([2", "4925": ", 43, 19", "4926": ", 43, 19]", "4927": ": 128", "4928": "num_fn(11", "4929": "num_fn(11, 3", "4930": ": 1331", "4931": "find_it(18", "4932": "other_fn(i", "4933": ", 85] me sab", "4934": " - 9", "4935": " - 9 = ", "4936": " - 9 = 17", "4937": " - 9 = 17)", "4938": "easy_fn(26", "4939": "9 aur 25", "4940": " jodkar 16", "4941": "result_fn ho", "4942": "result_fn(-9", "4943": " likho jo -3", "4944": "math_tool(-3", "4945": ": 26.6", "4946": "num_work([2", "4947": "8, 28, 49]", "4948": "value_fn([4", "4949": "check_fn(9", "4950": "result_fn(34", "4951": ": 93.", "4952": ": 93.2", "4953": "solve_it(n", "4954": "solve_it(37", "4955": "my_func(x", "4956": "x * my_func(", "4957": "my_func(3", "4958": ": ta", "4959": ": tarah", "4960": ": tarahb", "4961": "solve_it(48", "4962": ", 144", "4963": "_fn('Sarkar'", "4964": "calc_fn(8", "4965": "17 aur 29", "4966": "make_it(p, q", "4967": "make_it(17", "4968": "_fn('jaldi'", "4969": ", 3, 7, 7", "4970": "12, 15, 3, 7", "4971": ": [24, 30, 6", "4972": ", 14, 14]", "4973": "main_fn(20", "4974": ", 5, 42, 15", "4975": "compute([44", "4976": ", 5, 5, 42", "4977": "value_fn(36", "4978": "num_work([6", "4979": ": [12, 40, 4", "4980": "math_tool(21", "4981": "easy_fn(9, 3", "4982": ": 729", "4983": ", 20, 2, 35", "4984": "my_func([37", "4985": ", 20, 2, 35]", "4986": ", 36] me sab", "4987": "find_it(3", "4988": "find_it(3, 5", "4989": "check_fn(-1", "4990": "check_fn(-17", "4991": ", 20, 31, 9", "4992": ", 20, 31, 9]", "4993": "8, -23", "4994": "helper_fn(28", "4995": "ka sum 71", "4996": "ka sum 71 ho", "4997": "sum_fn([3", "4998": ", 39], 71", "4999": "22 aur ", "5000": "22 aur 53", "5001": " - 46", "5002": " - 46 = -2", "5003": " - 46 = -20)", "5004": "math_tool(26", "5005": ", 17, 38", "5006": "ka sum 20 ho", "5007": "5, 15, 17", "5008": ", 38], 20", "5009": ": -23", "5010": ": -23, 24", "5011": "sum_fn(-23", "5012": "main_fn(x, y", "5013": "main_fn(25", "5014": "other_fn([11", "5015": ", 2, 15]", "5016": "st [2, 7, 11", "5017": "tool_fn([2", "5018": "ka sum 56 ho", "5019": "check_fn([5", "5020": ", 32], 56", "5021": "x * easy_fn(", "5022": "_fn([1, 5", "5023": ": [2, 10, 3", "5024": ", 23, 31", "5025": ", 23, 31]", "5026": "result_fn(53", "5027": "my_func(56", "5028": ": 132", "5029": ": 132.8", "5030": "first_fn(33", "5031": " likho jo 15", "5032": "fast_calc(15", "5033": ": 59", "5034": ": 59.0", "5035": "jaise 5", "5036": "main_fn(data", "5037": "main_fn([6", "5038": ": 56", "5039": ": 56.", "5040": ": 56.25", "5041": "simple_fn(13", "5042": ", 8, 39, 36", "5043": ", 8, 39, 36]", "5044": ": [40, 8", "5045": "4 ho", "5046": "process(44", "5047": "19 aur 39", "5048": "helper_fn(19", "5049": ": [10, 38, 2", "5050": ", 13, 3, 14", "5051": "find_it([13", "5052": ", 13, 3, 14]", "5053": ": [26, 26", "5054": ": [26, 26, 6", "5055": "math_tool(35", "5056": "_fn([61", "5057": "process(7", "5058": "st [24, 36", "5059": "run_calc([24", "5060": ", 36, 43]", "5061": ": 103", "5062": "sum_fn(61", "5063": "find_it(i", "5064": "i * find_it(", "5065": "find_it(8", "5066": "get_value(5", "5067": "avg_fn(5", "5068": ", 44, 25, 9", "5069": ": 110", "5070": "first_fn([15", "5071": ", 54] me sab", "5072": "compute(23", "5073": "Animal ", "5074": "Animal base ", "5075": "class aur ", "5076": "Dog, ", "5077": "Dog, Ca", "5078": "Dog, Cat ", "5079": "classe", "5080": "classes ", "5081": "likho jin", "5082": "likho jinme ", "5083": "apna apna ", "5084": "apna apna so", "5085": "und ", "5086": "und h", "5087": "und ho ", "5088": "und ho (", "5089": "und ho (in", "5090": "und ho (inh", "5091": "eri", "5092": "eritan", "5093": "eritance", "5094": "eritance)", "5095": "\nclass ", "5096": "Animal:\n    ", "5097": "def __", "5098": "def __in", "5099": "def __init", "5100": "def __init__", "5101": "(self", "5102": "(self, ", "5103": "(self, name", "5104": "self.", "5105": "self.na", "5106": "self.name ", "5107": "self.name = ", "5108": "name\n", "5109": "name\n\n    ", "5110": "return \"..", "5111": "return \"...", "5112": "Dog(Animal", "5113": "return \"Bhow", "5114": "Cat(Animal", "5115": "return \"Meow", "5116": " Meow\"\n\n", "5117": " Meow\"\n\nd", "5118": " Meow\"\n\nd = ", "5119": "Dog(\"", "5120": "Dog(\"Tom", "5121": "Dog(\"Tomu\")\n", "5122": "c = ", "5123": "c = Cat(", "5124": "c = Cat(\"", "5125": "c = Cat(\"Mis", "5126": "hu\")\n", "5127": "hu\")\nprint(", "5128": "hu\")\nprint(d", "5129": ".name, d", "5130": ": Tom", "5131": ": Tomu", "5132": ": Tomu Bhow", "5133": " Bhow\n", "5134": " Bhow\nprint(", "5135": "c.name, ", "5136": "c.name, c", "5137": ": Mis", "5138": ": Mishu", "5139": ": Mishu Meow", "5140": "work_fn(i", "5141": "i * work_fn(", "5142": "sum_fn(51", "5143": "likho jo -4", "5144": "9 jodkar 25", "5145": "helper_fn ho", "5146": "helper_fn(-4", "5147": "compute([25", "5148": "0, 3, 49]", "5149": ": 167", "5150": ": [12, 36]", "5151": "2 aur -3", "5152": " jodkar -1", "5153": "fast_calc ho", "5154": "2, -3", "5155": "18 aur 16", "5156": ", 72, 61, 48", "5157": "compute([32", "5158": "aur m", "5159": ": -1, 12", "5160": "main_fn(-1", "5161": "compute(21", "5162": ", 33, 25", "5163": ", 33, 25]", "5164": "calc_fn(37", "5165": "compute(num", "5166": "compute(num ", "5167": "other_fn([33", "5168": "other_fn(14", "5169": ": 49.8", "5170": "value_fn(13", "5171": ", 11, 34]", "5172": ": [16, 12", "5173": "process(48", "5174": ": [22, 22", "5175": "42 aur 72", "5176": "test_fn(42", "5177": "num_work(57", "5178": "find_it([21", "5179": ", 71, 25, 1]", "5180": "0 aur -30", "5181": " jodkar 0 de", "5182": "do_math(30", "5183": "5 aur ", "5184": "5 aur 27", "5185": "95, 27", "5186": "st [13, 4, 2", "5187": ", 4, 2, 26]", "5188": "[74, 16, 22", "5189": ", 42, 55]", "5190": "do_math(67", "5191": "st [5, 13", "5192": "ka sum 27 ho", "5193": "5, 13, 22", "5194": ", 23], 27", "5195": "the_answer(4", "5196": "89, 801", "5197": "nikale ki 4", "5198": ", 90, 7", "5199": ", 90, 78]", "5200": "st [15, 31", "5201": "_fn([15, 31", "5202": "avg_fn(73", "5203": "jaise 28", "5204": " aur -24", "5205": "first_fn(28", "5206": "do_it(25, 13", "5207": "st [7, 7, 33", "5208": "6 aur 48", "5209": "get_value(46", "5210": "1, 30, 41, 9", "5211": "avg_fn(3, 5", "5212": "get_value(24", "5213": "0, 16, 1]", "5214": "check_fn(25", "5215": ": 350", "5216": "7 aur 12", "5217": "27, 12", "5218": "solve_it([75", "5219": ": 51.0", "5220": ", 35, 9", "5221": ", 35, 9]", "5222": ": [32, 16]", "5223": "simple_fn(12", "5224": "num_work([30", "5225": " - 3", "5226": " - 3 = ", "5227": " - 3 = 38)", "5228": "st [64", "5229": "do_math([64", "5230": ": 47.4", "5231": "st [8, 20, 5", "5232": ": [8, 20]", "5233": "check_fn(7", "5234": "2, -18", "5235": "work_fn(12", "5236": "tool_fn(7, 5", "5237": "do_it(8, 4", "5238": "num_fn([19", "5239": ", 34], 60", "5240": "math_tool([7", "5241": ", 13, 18]", "5242": "value_fn(x ", "5243": "st [21, 42", "5244": ", 42, 35]", "5245": "calc_fn(6", "5246": "st [14, 4", "5247": "basic_fn([14", "5248": ", 4, 15]", "5249": ": [28, 8", "5250": "do_it(9, 2", "5251": "st [15, 13", "5252": "value_fn([15", "5253": ", 13, 11]", "5254": ": [30, 26", "5255": "2, 8, 19, 3", "5256": "2, 8, 19, 3]", "5257": ": [40, 24", "5258": ", 16, 38", "5259": ", 16, 38, 6]", "5260": "avg_fn(89", "5261": ", 890", "5262": "22 ho", "5263": "num_fn(16", "5264": "other_fn(-9", "5265": "17 aur 16", "5266": "17, 16", "5267": "13 aur 37", "5268": "13, 37", "5269": "my_func ho", "5270": "my_func(-18", "5271": "15 ho", "5272": "nikale (33", "5273": " - 17 = ", "5274": " - 17 = 16", "5275": " - 17 = 16)", "5276": "st [15, 4, 3", "5277": "15, 4, 3", "5278": ", 17, 24, 33", "5279": "avg_fn([5", "5280": ", 33], 57", "5281": ": 14, -19", "5282": "14, -19", "5283": "tool_fn(3", "5284": "tool_fn(3, 7", "5285": ", 7, 12, 4", "5286": "find_it([11", "5287": ", 7, 12, 4]", "5288": ": [22, 14", "5289": ", 24, 8]", "5290": "main_fn(2", "5291": "solve_it([61", "5292": "st [25, 15", "5293": "25, 15, 14]", "5294": "_fn([17, 34", "5295": "st [26, 4", "5296": "0, 4, 39", "5297": "0, 4, 39, 27", "5298": "do_it([26", "5299": ", 40, 4, 39", "5300": ": [26, 40, 4", "5301": "und(avg_fn(", "5302": "0, 3, 15, 12", "5303": ": [40, 6", "5304": ", 20, 34", "5305": "4, 9, 14, 16", "5306": ", 20, 34]", "5307": ", 12, 21, 31", "5308": "easy_fn([1", "5309": ", 31], 52", "5310": "9 aur 91", "5311": "sum_fn(59", "5312": ", 6, 13", "5313": ", 6, 13]", "5314": "st [10, 25", "5315": "ka sum 40", "5316": "ka sum 40 ho", "5317": "main_fn([10", "5318": "st [1, 31, 5", "5319": ", 31, 5, 45]", "5320": "simple_fn(53", "5321": ": 512", "5322": "2 aur 43", "5323": "13 aur 9", "5324": "easy_fn(13", "5325": ": 462", "5326": "22, 44", "5327": "result_fn(-8", "5328": ": 17.6", "5329": "st [28", "5330": ": [28, 16", "5331": ": [28, 16, 6", "5332": "sum_fn(val ", "5333": "sum_fn(8", "5334": "st [2, 16", "5335": "second_fn([2", "5336": "1 aur 99", "5337": "81, 99", "5338": " likho jo n ", "5339": "9 aur 2", "5340": "my_func(39", "5341": "12, 18, 94]", "5342": "17 aur 14", "5343": "17, 14", "5344": ": 238", "5345": "st [11, 19", "5346": ", 19, 7", "5347": ", 19, 7, 11]", "5348": ": [22, 38", "5349": ", 14, 22]", "5350": "easy_fn(-23", "5351": "check_fn([13", "5352": ": 41.1", "5353": "basic_fn(72", "5354": "st [1, 19", "5355": "_fn([1, 19", "5356": ", 10, 5]", "5357": ": [2, 38, 2", "5358": "0, 10]", "5359": ": 102.", "5360": ": 102.2", "5361": " - 13 = ", "5362": " - 13 = 27", "5363": " - 13 = 27)", "5364": "calc_total(4", "5365": "1 aur 5", "5366": "process(81", "5367": "14 aur 7", "5368": "basic_fn(14", "5369": "81, 29", "5370": "5 aur 19", "5371": "do_it(45", "5372": "do_it(45, 19", "5373": "basic_fn([3", "5374": ": [30, 2, 22", "5375": "first_fn([4", "5376": "first_fn([49", "5377": ": 44.6", "5378": "solve_it(72", "5379": "easy_fn(19", "5380": "st [1, 9, 19", "5381": ", 36, 38", "5382": "0, 13, 34", "5383": "0, 13, 34]", "5384": ", 33, 1", "5385": ", 33, 1]", "5386": ": [38, 34]", "5387": ", 37, 5, 14", "5388": ", 37, 5, 14]", "5389": ": 107", "5390": ": 24, -24", "5391": "calc_fn(24", "5392": ": 39.2", "5393": "a * avg_fn(", "5394": "avg_fn(6", "5395": "st [5, 16", "5396": "st [5, 16, 1", "5397": ", 16, 1]", "5398": ": [10, 32", "5399": "9, -13", "5400": "19, -13", "5401": "st [6, 17", "5402": "easy_fn([6", "5403": "math_tool(3", "5404": "avg_fn(6, 14", "5405": "second_fn(74", "5406": "fast_calc(37", "5407": ", 28, 35", "5408": ", 28, 35]", "5409": "tool_fn(3, 3", "5410": "first_fn([13", "5411": "run_calc(num", "5412": "run_calc(8", "5413": "st [62, 53", "5414": "_fn([62, 53", "5415": ", 10, 13]", "5416": ": 62", "5417": "math_tool(i", "5418": "math_tool(4", "5419": "simple_fn(49", "5420": "find_it([68", "5421": "1 aur 84", "5422": "main_fn(51", "5423": ", 64, 78]", "5424": "20 aur 18", "5425": "20, 18", "5426": ": 360", "5427": "basic_fn(num", "5428": ", 51, 35, 31", "5429": "_fn([14, 6", "5430": "value_fn(8", "5431": ": 58.25", "5432": "second_fn(84", "5433": "sum_fn(22", "5434": ", 1, 22", "5435": ", 1, 22]", "5436": ": [4, 22]", "5437": "make_it(num", "5438": "first_fn([3", "5439": " likho jo 36", "5440": "36, 17", "5441": "st [11, 9, 7", "5442": "11, 9, 7", "5443": "11, 9, 7, 5]", "5444": "get_value(98", "5445": "st [15, 9", "5446": "st [15, 9, 1", "5447": "15, 9, 1]", "5448": "fast_calc(50", "5449": "test_fn([7", "5450": "test_fn([77", "5451": ": 52.0", "5452": "8 aur 20", "5453": "18, 20", "5454": ", 20, 27, 34", "5455": ", 34], 61", "5456": "st [1, 9, 14", "5457": ", 9, 14, 17]", "5458": ": [2, 18, 2", "5459": ": 327", "5460": ": 32768", "5461": " likho jo 11", "5462": "114", "5463": "114, 29", "5464": "tool_fn([12", "5465": "compute(25", "5466": ", 22, 28", "5467": ", 22, 28]", "5468": "20, 10, 3", "5469": "20, 10, 3]", "5470": ": [40, 2", "5471": ": [40, 20", "5472": " jodkar 5", "5473": "second_fn(25", "5474": ", 22, 35, 37", "5475": "make_it([1", "5476": ", 37], 57", "5477": "num_work(51", "5478": ", 306", "5479": "0, 13, 7, 19", "5480": "result_fn([1", "5481": ": [20, 26", "5482": "calc_fn(3", "5483": ", 77] me sab", "5484": ": 35.0", "5485": "26 aur 95", "5486": "make_it(i, j", "5487": "get_result(a", "5488": "get_result(7", "5489": ", 30, 27, 42", "5490": "10, 30, 27", "5491": ": 109", "5492": "85 aur 24", "5493": "compute(85", "5494": "other_fn(5", "5495": "st [20, 7", "5496": "st [20, 7, 4", "5497": "20, 7, 4]", "5498": ": [40, 14", "5499": "total_fn(35", "5500": "st [31, 21", "5501": ", 67] me sab", "5502": "_fn([31, 21", "5503": "simple_fn(a ", "5504": "simple_fn(8", "5505": "nikale (30", "5506": " - 34", "5507": " - 34 = ", "5508": " - 34 = -4)", "5509": "do_it(3", "5510": "do_it(30, 34", "5511": "sum_fn(6, 23", "5512": "i * make_it(", "5513": ", 32, 34", "5514": "ka sum 47", "5515": "ka sum 47 ho", "5516": ", 32, 34]", "5517": "run_calc([2", "5518": ", 78, 56]", "5519": ", 30, 31, 34", "5520": "avg_fn([9", "5521": ", 34], 34", "5522": ": 86.0", "5523": " likho jo 30", "5524": "st [33, 17", "5525": ": 179", "5526": "st [8, 7", "5527": "st [8, 7, 19", "5528": "check_fn([", "5529": "8, 7, 19]", "5530": "17 aur 5", "5531": "math_tool(17", "5532": "simple_fn(77", "5533": "num_fn(9", "5534": "num_fn(9, 2", "5535": "work_fn(68", "5536": "fast_calc(5", "5537": "\ndef do_it(i", "5538": "i * do_it(", "5539": "i * do_it(i ", "5540": "value_fn([75", "5541": ", 86, 8", "5542": ", 86, 84]", "5543": "36 aur 38", "5544": "get_value(36", "5545": "find_it(8, 4", "5546": " aur 90", "5547": "find_it(5", "5548": " aur 33", "5549": "0, 33", "5550": ", 67, 44, 74", "5551": "process([2", "5552": ", 67, 44, 7", "5553": "process(21", "5554": "work_fn(4, 3", "5555": "value_fn(21", "5556": "the_answer(6", "5557": "_fn('civic'", "5558": "process([4", "5559": ", 6, 12, 17", "5560": "check_fn(27", "5561": " aur -25", "5562": " jodkar 2 de", "5563": ", -25", "5564": " - 12 = 6)", "5565": "second_fn(18", "5566": "first_fn([33", "5567": ": [16, 10]", "5568": "likho jo 37", "5569": "7 aur -21", "5570": "-27, -21", "5571": ": -48", "5572": "solve_it(22", "5573": "58, 348", "5574": "9 aur 11", "5575": "math_tool(9", "5576": "do_math([7", "5577": ": 67.", "5578": "1 jodkar 13", "5579": "12, 1", "5580": " likho jo 56", "5581": "6, 39", "5582": ", 16, 15, 4", "5583": ": [38, 30, 1", "5584": "6, 4, 4]", "5585": "result_fn(1", "5586": "12 aur 50", "5587": "find_it(a, b", "5588": "find_it(12", "5589": "st [19, 3", "5590": "st [19, 3, 5", "5591": "_fn([19, 3", "5592": ": [38, 6", "5593": "first_fn([23", "5594": ": [14, 6", "5595": ": [28, 26", "5596": ", 26, 4", "5597": ", 26, 4, 32]", "5598": "16 aur 20", "5599": "solve_it(29", "5600": "calc_total(1", "5601": "num_work(2", "5602": "52, 260", "5603": "find_it(10", "5604": "quick_calc(i", "5605": "quick_calc(9", "5606": "math_tool([3", "5607": "1, 52, 3, 6", "5608": ", 71, 19]", "5609": "total_fn(13", "5610": ", 81] me sab", "5611": "50, 4", "5612": ", 81]", "5613": "35, 140", "5614": "st [7, 19, 2", "5615": "[7, 19, 2]", "5616": ": [14, 38", "5617": "45 aur 2", "5618": "my_func(p, q", "5619": "my_func(45", "5620": "test_fn(8", "5621": "17 aur -18", "5622": "num_fn(17", "5623": ", 22, 29, 39", "5624": ", 39], 60", "5625": "make_it(val", "5626": "make_it(val ", "5627": "make_it(22", "5628": "9 aur 24", "5629": "result_fn(39", "5630": "easy_fn(77", "5631": "tool_fn(9", "5632": "do_math(50", "5633": "do_math([5", "5634": "st [18, 22", "5635": "first_fn([1", "5636": ": [18, 22", "5637": ", 34, 16]", "5638": " - 12 = 14", "5639": " - 12 = 14)", "5640": "jaise -15", "5641": " aur -20", "5642": "tool_fn(-1", "5643": "tool_fn(-15", "5644": ": -35", "5645": "basic_fn(x", "5646": "basic_fn(10", "5647": ": [10, 14", "5648": "total_fn([54", "5649": "process(6", "5650": ", 8, 27", "5651": "first_fn([27", "5652": ", 8, 27]", "5653": "st [6, 33, 3", "5654": "value_fn([6", "5655": ": [6, 30, 2", "5656": "5 aur 35", "5657": "run_calc(95", "5658": ", 46, 28]", "5659": "first_fn(n", "5660": "first_fn(n ", "5661": "first_fn(7", "5662": "make_it([33", "5663": " - 35 = -15)", "5664": "total_fn(2", "5665": "0, 35", "5666": "2 aur 34", "5667": "42, 34", "5668": "simple_fn(78", "5669": ", 12, 46, 23", "5670": "[7, 12, 46", "5671": "total_fn(lst", "5672": "total_fn([", "5673": ": 38.5", "5674": "do_math([3", "5675": ", 4, 90, 66]", "5676": ", 5, 34", "5677": ", 5, 34]", "5678": ": [16, 4", "5679": "value_fn(4", "5680": "do_math(8, 4", "5681": " - 35 = -10)", "5682": ": -10", "5683": "st [16, 25", "5684": "basic_fn([16", "5685": ", 25, 3]", "5686": "work_fn(n", "5687": "n * work_fn(", "5688": "0, 29", "5689": "basic_fn([23", "5690": "0, 29]", "5691": ", 20, 37, 38", "5692": "ka sum 75", "5693": "ka sum 75 ho", "5694": ", 38], 75", "5695": "_fn('bharat'", "5696": "10 aur 18", "5697": "10, 18", "5698": "sum_fn(11", "5699": "solve_it([18", "5700": ": [36, 28", "5701": ", 18, 38", "5702": "jaise 0 aur ", "5703": "first_fn([", "5704": "first_fn([25", "5705": ", 40, 43]", "5706": "tool_fn([30", "5707": "st [100, 55", "5708": "100, 55", "5709": "fast_calc(12", "5710": ": 2488", "5711": ": 248832", "5712": "other_fn(28", "5713": ": 196", "5714": "other_fn([8", "5715": "6, 46]", "5716": "5 ke liye ", "5717": "my_func(35", "5718": ", 31, 48", "5719": ", 31, 48]", "5720": ": 159", "5721": "test_fn(93", "5722": ", 20, 36", "5723": "do_math([38", "5724": ": [38, 12", "5725": ": [38, 12, 2", "5726": ", 38, 20, 3", "5727": ", 29, 37", "5728": "ka sum 16 ho", "5729": ", 29, 37]", "5730": "my_func(arr", "5731": "my_func([60", "5732": ", 22, 17, 19", "5733": ", 22, 17", "5734": ": [4, 6, 32", "5735": "ka width 5", "5736": "[7, 4, 19, 8", "5737": ": [14, 8", "5738": ": [14, 8, 38", "5739": ", 16, 20]", "5740": "ka width 15", "5741": "process(15", "5742": ": 255", "5743": "helper_fn(2", "5744": "1 aur 6", "5745": "sum_fn(-11", "5746": ": 37.4", "5747": "my_func(34", "5748": ", 19, 4, 19", "5749": ", 19, 4, 19]", "5750": ": [24, 38", "5751": ": 152", "5752": "60 aur 6", "5753": "60 aur 65", "5754": "value_fn(60", "5755": "make_it(57", "5756": "4 aur 51", "5757": "4, 51", "5758": "compute(val", "5759": "compute(43", "5760": "result_fn(47", "5761": "3 aur 7", "5762": "st [58", "5763": "st [7, 19", "5764": "[7, 19, 97", "5765": "first_fn ho", "5766": "make_it([2", "5767": "st [7, 16", "5768": "[7, 16, 14", "5769": ": [14, 32", "5770": ", 28, 2]", "5771": "15, 16, 3]", "5772": ": [30, 32", "5773": "nikale (23", "5774": " - 49", "5775": " - 49 = -2", "5776": " - 49 = -26)", "5777": "value_fn(23", "5778": "total_fn(43", "5779": "work_fn(a", "5780": "a * work_fn(", "5781": "likho jo 22", "5782": "num_work(22", "5783": " aur -21", "5784": "run_calc(-23", "5785": "other_fn(37", "5786": "2, 11, 37]", "5787": "make_it(39", "5788": "st [85", "5789": "make_it(data", "5790": "make_it([85", "5791": ": 77.", "5792": ": 77.5", "5793": "make_it([13", "5794": "19 aur -8", "5795": "19, -8", "5796": "solve_it([52", "5797": ": 44.", "5798": "work_fn([37", "5799": ": 20.", "5800": "st [20, 15", "5801": "5, 13, 26]", "5802": "_fn([86, 6", "5803": "process([43", "5804": "helper_fn([3", "5805": "check_fn(98", "5806": ", 26, 27, 29", "5807": "main_fn([23", "5808": "4], 64", "5809": "9 aur 35", "5810": "num_work(49", "5811": ": [18, 18", "5812": "8 aur 66", "5813": "get_value(58", "5814": "other_fn(19", "5815": ": 494", "5816": "solve_it(38", "5817": "16 aur 6", "5818": "result_fn(16", "5819": "8 aur 4", "5820": "main_fn(68", "5821": "basic_fn([6", "5822": ": 37.", "5823": "find_it(7, 4", "5824": "num_fn(8", "5825": "likho jo 2", "5826": ": 80.", "5827": ": 80.6", "5828": ", 15, 23, 26", "5829": "ka sum 41", "5830": "ka sum 41 ho", "5831": "first_fn([11", "5832": ", 26], 41", "5833": "calc_fn(38", "5834": "likho jo 105", "5835": "second_fn(10", "5836": "me se j", "5837": "2 aur 31", "5838": "basic_fn(22", "5839": ", 5, 24, 17]", "5840": "helper_fn(61", "5841": ", 610", "5842": "st [26", "5843": ", 38, 48", "5844": "26, 7, 44, 9", "5845": ", 38, 48]", "5846": "18, 67, 100", "5847": ", 16, 97, 12", "5848": "value_fn([38", "5849": ", 20, 23]", "5850": ": [30, 3", "5851": "nikale (2 ", "5852": "nikale (2 - ", "5853": "40 = -", "5854": "40 = -38)", "5855": "avg_fn(2", "5856": "avg_fn(2, 40", "5857": ": [12, 20, 2", "5858": "process(33", "5859": "value_fn([31", "5860": "13 aur 47", "5861": "find_it(x, y", "5862": "find_it(13", "5863": "result_fn(7", "5864": "st [28, 7", "5865": "st [28, 77", "5866": "28, 77", "5867": "28, 77, 37", "5868": ", 17, 15, 4", "5869": "8, 17, 15", "5870": "5, 15, 17]", "5871": "main_fn(arr", "5872": "main_fn([8", "5873": ": 60.", "5874": ": 60.5", "5875": ": 54.0", "5876": "do_it('dost'", "5877": "num_fn(10, 3", "5878": "2 aur 2", "5879": "st [3, 18", "5880": "[3, 18", "5881": "[3, 18, 19]", "5882": "16 aur 90", "5883": "16, 90", "5884": "calc_fn(15", "5885": ": 399", "5886": "_fn('kayak'", "5887": ", 75, 78, 98", "5888": "likho jo 45", "5889": "test_fn(u, v", "5890": "test_fn(45", "5891": "basic_fn(2", "5892": "ka width 9", "5893": "the_answer(9", "5894": "8] se saare ", "5895": ", 18, 3, 8", "5896": "12, 15, 18", "5897": ", 3, 8]", "5898": ": [24, 30, 3", "5899": "6, 6, 16]", "5900": "test_fn(10", "5901": "8, 25]", "5902": "0, 40, 18]", "5903": "basic_fn(31", "5904": "total_fn(10", "5905": ", 35, 36, 38", "5906": "ka sum 68", "5907": "ka sum 68 ho", "5908": "avg_fn([8", "5909": ", 38], 68", "5910": "my_func([69", "5911": "st [35, 3, 9", "5912": "total_fn([35", "5913": ", 3, 9, 1]", "5914": "st [67, 48", "5915": "do_math(data", "5916": "do_math([67", "5917": ": 49.5", "5918": ", 10] me sab", "5919": "29, 64, 82", "5920": ": [8, 2", "5921": ": [8, 20, 1", "5922": "0, 2, 8]", "5923": "ka sum 25 ho", "5924": "my_func([3", "5925": ", 33], 25", "5926": "2, 4, 17, 14", "5927": "jaise 30", "5928": "check_fn(3", "5929": "tool_fn(x, y", "5930": "tool_fn(4", "5931": "st [43, 33", "5932": "check_fn([43", "5933": ", 33, 13]", "5934": "likho jo 30", "5935": "value_fn ho", "5936": "value_fn(30", "5937": "7 aur 26", "5938": "solve_it(-7", "5939": "37 aur 7", "5940": "37 aur 73", "5941": "value_fn(37", "5942": ": [34, 18", "5943": "val1 aur ", "5944": ": -3, 6", "5945": "work_fn(-3", "5946": "st [19, 4", "5947": "run_calc([19", "5948": ", 4, 7, 3]", "5949": ": [38, 8", "5950": "avg_fn(-1", "5951": "avg_fn(-10", "5952": ": 14.0", "5953": "9 aur -19", "5954": "total_fn(-19", "5955": "first_fn(3", "5956": ", 13, 18, 11", "5957": "find_it([17", "5958": "6 aur 8", "5959": "6 aur 82", "5960": "simple_fn(5", "5961": "simple_fn(56", "5962": "do_it(10, 17", "5963": "test_fn(72", "5964": "ka sum 51", "5965": "ka sum 51 ho", "5966": ", 30], 51", "5967": "25, 150", "5968": "13 aur 16", "5969": "13, 16", "5970": ": 208", "5971": "my_func(6", "5972": "my_func(6, 8", "5973": ", 38, 47, 41", "5974": "st [7, 18", "5975": "st [7, 18, 1", "5976": "second_fn([7", "5977": ", 18, 1]", "5978": ": [14, 36", "5979": " likho jo 16", "5980": "my_func(16", "5981": "likho jo 23", "5982": "easy_fn(23", "5983": ": 73.", "5984": ": 73.4", "5985": "num_fn(11, 4", "5986": "my_func(i", "5987": "i * my_func(", "5988": " likho jo 33", "5989": "math_tool(33", "5990": "_fn('Accha'", "5991": "fast_calc(19", "5992": ": 513", "5993": ", 97, 65]", "5994": "1 aur -2", "5995": "1 aur -20", "5996": " jodkar -31", "5997": "make_it ho", "5998": "make_it(-11", "5999": ": -31", "6000": ", 65, 29]", "6001": ": 7776", "6002": "tool_fn(74", "6003": "total_fn(31", "6004": "find_it(21", "6005": "make_it(25", "6006": "st [17, 17", "6007": ", 6, 17", "6008": "17, 17, 6", "6009": "helper_fn([9", "6010": ": 40.25", "6011": "_fn([44, 5", "6012": ", 97, 51]", "6013": ": 14 aur 8", "6014": "num_work(14", "6015": "make_it([19", "6016": ", 13, 7]", "6017": ": [38, 26", "6018": "st [14, 9", "6019": "_fn([14, 9", "6020": "calc_fn(84", "6021": ", 336", "6022": "st [55", "6023": ", 89, 10, 69", "6024": "55, 89, 10", "6025": ", 69]", "6026": "num_work(7", "6027": ": 38.25", "6028": ", 7, 9, 25", "6029": "ka sum 13 ho", "6030": ", 6, 7, 9", "6031": ", 25], 13", "6032": "0, 43, 4, 6", "6033": "[30, 43, 4", "6034": "jaise 6 aur ", "6035": "work_fn(6", "6036": ", -11", "6037": "i * tool_fn(", "6038": "7 aur -30", "6039": "first_fn(-7", "6040": ": -37", "6041": "ka sum 70", "6042": "ka sum 70 ho", "6043": "0, 25, 34", "6044": ", 36], 70", "6045": ", 20, 25, 38", "6046": "ka sum 58", "6047": "ka sum 58 ho", "6048": "num_fn([16", "6049": ", 38], 58", "6050": ": [16, 18", "6051": ", 36, 14]", "6052": ", 45, 78, 68", "6053": "process([9", "6054": ", 45, 78, 6", "6055": "work_fn(-1", "6056": ": [26, 1", "6057": "13 aur 12", "6058": "check_fn(13", "6059": "4 aur 49", "6060": "math_tool(34", "6061": "quick_calc(a", "6062": ", 20, 25, 36", "6063": "tool_fn([1", "6064": ", 36], 29", "6065": "nikale (24", "6066": " - 24", "6067": " - 24 = 0", "6068": " - 24 = 0)", "6069": "93 aur 21", "6070": "value_fn(93", "6071": "st [8, 71", "6072": ", 63] me sab", "6073": "8, 71", "6074": ", 63]", "6075": "st [2, 3", "6076": ", 27], 48", "6077": "st [49, 32", "6078": "total_fn([49", "6079": ", 32, 24]", "6080": "18 aur 8", "6081": "compute(18", "6082": "18, 17, 2", "6083": ": [18, 2, 1", "6084": "0, 28]", "6085": ": 432", "6086": "st [12, 17", "6087": ", 17, 17]", "6088": "9 aur 18", "6089": "ka sum 46", "6090": "ka sum 46 ho", "6091": "34 aur 26", "6092": "make_it(x, y", "6093": "make_it(34", "6094": ": [6, 30, 36", "6095": "1 aur 1", "6096": "return x * ", "6097": "test_fn(1", "6098": "test_fn(1, 1", "6099": "30 ho", "6100": "2 aur 45", "6101": "do_math(42", "6102": "result_fn(a", "6103": "result_fn(41", "6104": ": [16, 32", "6105": ": [16, 32, 2", "6106": "und(find_it(", "6107": "st [12, 8", "6108": "st [12, 8, 6", "6109": "_fn([12, 8", "6110": ": [24, 16", "6111": " - 18", "6112": " - 18 = ", "6113": " - 18 = 2", "6114": " - 18 = 22)", "6115": "0, 18", "6116": ", 39, 34, 24", "6117": "simple_fn([", "6118": ", 34, 24]", "6119": "fast_calc(2", "6120": ": 35.6", "6121": ", 46, 41", "6122": ", 46, 41]", "6123": "st [15, 2, 2", "6124": ": [30, 4, 4]", "6125": "st [22, 4", "6126": "st [22, 4, 2", "6127": "_fn([22", "6128": ", 4, 2, 14]", "6129": ": 102", "6130": "11 ho", "6131": "nikale ki 11", "6132": "my_func(78", "6133": ", 34, 50, 41", "6134": "nikale (2", "6135": "9 - 38", "6136": "9 - 38 = ", "6137": "9 - 38 = -9", "6138": "9 - 38 = -9)", "6139": "29, 38", "6140": ", 58] me sab", "6141": "find_it([33", "6142": ", 22, 29]", "6143": "first_fn(5", "6144": "st [38, 48", "6145": "work_fn(data", "6146": ": 65.5", "6147": "7 aur 25", "6148": "avg_fn(27", "6149": "_fn('madam'", "6150": "nikale (32", "6151": " - 21", "6152": " - 21 = ", "6153": " - 21 = 11)", "6154": "sum_fn(32", "6155": ": [40, 3", "6156": ": [40, 36", "6157": "calc_fn(0", "6158": ": 1296", "6159": "st [3, 97, 3", "6160": "compute([3", "6161": ", 97, 3, 51]", "6162": ", 30, 31, 35", "6163": ", 35], 36", "6164": "make_it([75", "6165": ": 46.0", "6166": ", 23, 6, 33", "6167": "check_fn([18", "6168": ", 23, 6, 33]", "6169": ": [18, 36", "6170": "1 aur 63", "6171": "do_math(51", "6172": "my_func(60", "6173": ": [12]", "6174": "_fn([43", "6175": ": [4, 38]", "6176": "nikale (9 - ", "6177": "13 = -4)", "6178": "32, 128", "6179": ", 17, 19, 39", "6180": "tool_fn([14", "6181": ", 39], 31", "6182": "6 aur -1", "6183": "6 aur -17 ", "6184": "jodkar -", "6185": "find_it(-16", "6186": ", -17", "6187": ": -33", "6188": ", 18, 23, 34", "6189": "second_fn([6", "6190": ", 34], 36", "6191": "8 aur -16", "6192": " jodkar -44", "6193": "num_work(-2", "6194": "num_work(-28", "6195": ", -16", "6196": " likho jo 10", "6197": "my_func(u, v", "6198": "_fn('Naya'", "6199": ", 25, 26, 11", "6200": ", 60] me sab", "6201": "hindi coding", "6202": "_fn('hindi ", "6203": "process(71", "6204": "value_fn([16", "6205": ": [16, 22", "6206": "get_value(10", "6207": ": 60", "6208": ", 32, 15", "6209": "9, 38, 3, 2", "6210": ", 32, 15]", "6211": "my_func([16", "6212": ": [32, 36", "6213": ", 10, 10, 2]", "6214": "batae ki 31", "6215": "second_fn(31", "6216": "12 aur 7", "6217": "st [18, 2", "6218": "0] ke saare ", "6219": ": [36, 4", "6220": ": [36, 4, 32", "6221": ", 36, 40]", "6222": "calc_fn(76", "6223": "do_it(3, 17", "6224": "nikale (13", "6225": " - 19", "6226": " - 19 = -", "6227": " - 19 = -6)", "6228": "sum_fn(14", "6229": "st [99", "6230": "compute([99", "6231": "83 aur 7", "6232": "83 aur 76", "6233": "test_fn(x, y", "6234": "test_fn(83", "6235": ": 224", "6236": "do_it(61", "6237": "nikale ki 9", "6238": ", 21]", "6239": "st [31, 11", "6240": ", 11, 19, 1", "6241": "7 aur 46", "6242": "und(do_it(", "6243": "9 aur 32", "6244": "do_it(89", "6245": "do_it(89, 32", "6246": "9 aur 82", "6247": "work_fn(x, y", "6248": "work_fn(39", "6249": "-24 de", "6250": "find_it(-1", "6251": ", 9, 8, 8", "6252": "solve_it([15", "6253": ", 2, 9, 8", "6254": ": [30, 4, 18", "6255": ", 16, 16]", "6256": "batae ki 33", "6257": "simple_fn(33", "6258": "get_value([3", "6259": "4, 23, 20, 2", "6260": "0, 23]", "6261": ", 16] me sab", "6262": "st [15, 8", "6263": "_fn([15, 8", "6264": ": [30, 16", "6265": "my_func(val", "6266": "my_func(val ", "6267": "_fn('radar'", "6268": "14 aur 69", "6269": "solve_it(14", "6270": "total_fn([75", "6271": ", 16, 3, 8", "6272": "make_it([32", "6273": ", 16, 3, 8]", "6274": "1 jodkar -2", "6275": "-27, 1", "6276": "the_answer(2", "6277": ": 31", "6278": ": 36 aur ", "6279": ": 36 aur 4", "6280": "36, 4", "6281": ", 1, 3, 4, 6", "6282": "19, 1, 3, 4", "6283": ": [38, 2, 6", "6284": ", 8, 12]", "6285": "result_fn(33", "6286": ": 91.", "6287": ": 91.4", "6288": "val * do_it(", "6289": ", 41] me sab", "6290": ": -8, 14", "6291": "sum_fn(-8", "6292": ": 61", "6293": ": 437", "6294": "result_fn([9", "6295": ": 65.", "6296": "44 aur 7", "6297": "solve_it(44", "6298": ", 20, 37]", "6299": "st [42, 35", "6300": "_fn([42, 35", "6301": "9 aur 48", "6302": "value_fn(29", "6303": " likho jo 24", "6304": "my_func(24", "6305": "num_work(val", "6306": "st [15, 23", "6307": "_fn([15, 23", "6308": "work_fn(25", "6309": ": 77.0", "6310": "st [1, 4", "6311": "ka sum 5 ho", "6312": "get_value([1", "6313": ", 4, 8, 13]", "6314": "9 aur 53", "6315": "get_value(79", "6316": ", 31, 36", "6317": "get_value([4", "6318": ", 31, 36]", "6319": "second_fn([3", "6320": "likho jo 96", "6321": "num_work(96", "6322": "14 aur 15", "6323": "666", "6324": ": [2, 24", "6325": ": [2, 24, 22", "6326": "total_fn(6", "6327": "calc_total(3", "6328": " aur -28", "6329": "compute(-23", "6330": ", -28", "6331": ": -51", "6332": "8 aur 90", "6333": "second_fn(48", "6334": "do_it(18, 72", "6335": "result_fn(2", "6336": "9 aur 9", "6337": "easy_fn(p, q", "6338": "easy_fn(9, 9", "6339": ", 66, 95]", "6340": "simple_fn(3", "6341": "do_it(70, 56", "6342": "18 aur 24", "6343": "check_fn([10", "6344": "nikale ki 42", "6345": "n * compute(", "6346": "compute(6", "6347": "solve_it([33", "6348": ": [30, 10]", "6349": "1, -22", "6350": "21, -22", "6351": ", 43, 14", "6352": "total_fn([13", "6353": ", 43, 14]", "6354": ", 5, 3", "6355": ", 5, 3]", "6356": ", 37], 36", "6357": ": [20, 22", "6358": ", 12, 34]", "6359": "result_fn(90", "6360": "17 aur 32", "6361": "solve_it(17", "6362": "st [10, 29", "6363": "ka sum 69", "6364": "ka sum 69 ho", "6365": "_fn([10, 29", "6366": "avg_fn(4, 5", "6367": ": 1024", "6368": "check_fn(lst", "6369": "check_fn([57", "6370": ": 36.8", "6371": ": 308", "6372": "7 aur 19", "6373": ", 31, 13, 44", "6374": "solve_it([77", "6375": "9 - 28", "6376": "9 - 28 = ", "6377": "9 - 28 = 21", "6378": "9 - 28 = 21)", "6379": "my_func(49", "6380": "15, 93, 36", "6381": ": 51.", "6382": ": 51.25", "6383": "2 aur 4", "6384": "process(p, q", "6385": "process(2, 4", "6386": "66 aur 5", "6387": "math_tool(66", "6388": "make_it(lst", "6389": "make_it([24"}, "rank": {"35,35": 0, "227,167": 1, "259,259": 2, "47,35": 3, "113,35": 4, "13,261": 5, "227,168": 6, "117,104": 7, "114,35": 8, "100,111": 9, "120,119": 10, "61,35": 11, "265,144": 12, "271,260": 13, "61,264": 14, "108,113": 15, "104,35": 16, "98,105": 17, "108,110": 18, "120,117": 19, "120,113": 20, "105,35": 21, "119,43": 22, "120,112": 23, "266,119": 24, "283,278": 25, "284,263": 26, "117,274": 27, "64,35": 28, "44,273": 29, "113,43": 30, "104,117": 31, "119,35": 32, "279,102": 33, "108,114": 34, "115,269": 35, "103,104": 36, "113,282": 37, "276,289": 38, "119,293": 39, "298,263": 40, "100,35": 41, "110,35": 42, "267,109": 43, "292,299": 44, "35,114": 45, "295,280": 46, "13,13": 47, "115,286": 48, "307,281": 49, "44,44": 50, "309,259": 51, "310,38": 52, "311,304": 53, "312,269": 54, "313,294": 55, "260,173": 56, "315,272": 57, "316,179": 58, "317,260": 59, "318,185": 60, "272,171": 61, "320,270": 62, "111,277": 63, "322,107": 64, "323,302": 65, "49,13": 66, "325,260": 67, "326,152": 68, "327,265": 69, "328,142": 70, "329,260": 71, "330,164": 72, "331,61": 73, "324,267": 74, "13,305": 75, "306,308": 76, "105,303": 77, "321,72": 78, "337,301": 79, "114,117": 80, "262,52": 81, "121,268": 82, "118,104": 83, "35,110": 84, "118,119": 85, "273,261": 86, "120,111": 87, "266,118": 88, "347,346": 89, "264,285": 90, "262,53": 91, "108,263": 92, "108,35": 93, "262,54": 94, "112,100": 95, "113,277": 96, "355,268": 97, "119,107": 98, "119,114": 99, "276,263": 100, "100,266": 101, "296,101": 102, "361,290": 103, "102,114": 104, "35,287": 105, "123,35": 106, "102,107": 107, "111,108": 108, "356,104": 109, "120,104": 110, "102,268": 111, "370,102": 112, "264,105": 113, "372,339": 114, "373,35": 115, "101,100": 116, "108,280": 117, "112,275": 118, "118,35": 119, "122,339": 120, "119,100": 121, "98,341": 122, "45,35": 123, "348,119": 124, "358,119": 125, "384,268": 126, "114,111": 127, "107,100": 128, "98,108": 129, "106,104": 130, "275,110": 131, "343,300": 132, "118,291": 133, "44,35": 134, "348,291": 135, "113,103": 136, "333,367": 137, "392,94": 138, "35,377": 139, "262,55": 140, "118,282": 141, "119,104": 142, "118,275": 143, "111,104": 144, "103,114": 145, "107,104": 146, "100,113": 147, "100,278": 148, "407,35": 149, "365,351": 150, "100,117": 151, "122,290": 152, "98,371": 153, "388,281": 154, "341,369": 155, "262,56": 156, "118,108": 157, "35,408": 158, "113,100": 159, "379,103": 160, "118,100": 161, "35,368": 162, "354,357": 163, "362,378": 164, "344,286": 165, "424,106": 166, "110,360": 167, "51,340": 168, "54,54": 169, "389,119": 170, "35,351": 171, "358,386": 172, "262,59": 173, "342,116": 174, "115,104": 175, "35,333": 176, "48,35": 177, "112,115": 178, "437,403": 179, "342,104": 180, "118,288": 181, "108,117": 182, "112,274": 183, "94,96": 184, "270,94": 185, "35,382": 186, "343,267": 187, "121,104": 188, "262,58": 189, "117,114": 190, "262,60": 191, "405,108": 192, "270,52": 193, "121,290": 194, "102,110": 195, "412,43": 196, "46,35": 197, "394,287": 198, "262,57": 199, "46,287": 200, "264,261": 201, "274,103": 202, "375,380": 203, "297,94": 204, "442,381": 205, "103,267": 206, "342,363": 207, "466,395": 208, "262,124": 209, "40,35": 210, "287,51": 211, "107,114": 212, "51,96": 213, "57,57": 214, "288,376": 215, "363,279": 216, "100,115": 217, "107,108": 218, "114,411": 219, "420,360": 220, "479,35": 221, "105,100": 222, "49,476": 223, "482,434": 224, "483,395": 225, "484,43": 226, "108,103": 227, "354,123": 228, "487,381": 229, "387,108": 230, "44,335": 231, "105,441": 232, "102,104": 233, "425,35": 234, "343,275": 235, "379,110": 236, "111,390": 237, "366,104": 238, "362,118": 239, "73,268": 240, "499,342": 241, "48,52": 242, "493,42": 243, "122,486": 244, "503,357": 245, "451,106": 246, "505,107": 247, "118,345": 248, "115,290": 249, "54,53": 250, "63,287": 251, "103,43": 252, "108,119": 253, "124,275": 254, "110,512": 255, "514,113": 256, "123,119": 257, "376,365": 258, "50,35": 259, "300,418": 260, "123,468": 261, "288,261": 262, "465,423": 263, "87,117": 264, "523,369": 265, "104,111": 266, "291,426": 267, "117,406": 268, "527,389": 269, "528,43": 270, "64,470": 271, "404,98": 272, "531,422": 273, "388,291": 274, "52,51": 275, "53,35": 276, "113,104": 277, "536,104": 278, "537,103": 279, "439,113": 280, "120,118": 281, "52,52": 282, "117,100": 283, "371,98": 284, "543,385": 285, "416,438": 286, "491,344": 287, "103,100": 288, "387,352": 289, "548,124": 290, "549,519": 291, "550,477": 292, "52,55": 293, "390,352": 294, "363,112": 295, "554,294": 296, "357,104": 297, "556,98": 298, "557,406": 299, "558,118": 300, "559,411": 301, "547,380": 302, "96,398": 303, "410,117": 304, "112,124": 305, "564,276": 306, "565,292": 307, "297,42": 308, "405,111": 309, "520,364": 310, "119,300": 311, "354,110": 312, "571,104": 313, "270,53": 314, "494,480": 315, "52,56": 316, "35,115": 317, "422,98": 318, "577,431": 319, "419,118": 320, "497,454": 321, "53,345": 322, "481,344": 323, "485,123": 324, "583,44": 325, "52,345": 326, "457,443": 327, "400,43": 328, "462,104": 329, "401,344": 330, "100,118": 331, "429,381": 332, "568,508": 333, "270,55": 334, "52,53": 335, "403,289": 336, "108,401": 337, "596,112": 338, "96,574": 339, "115,449": 340, "599,492": 341, "600,118": 342, "400,35": 343, "367,344": 344, "104,590": 345, "604,124": 346, "496,300": 347, "606,360": 348, "607,300": 349, "368,262": 350, "444,427": 351, "118,386": 352, "611,447": 353, "42,446": 354, "49,35": 355, "506,119": 356, "498,391": 357, "111,275": 358, "115,367": 359, "270,56": 360, "42,398": 361, "620,515": 362, "621,275": 363, "378,387": 364, "623,351": 365, "624,513": 366, "374,98": 367, "430,529": 368, "105,461": 369, "296,98": 370, "104,447": 371, "630,263": 372, "469,535": 373, "632,530": 374, "344,117": 375, "117,279": 376, "110,300": 377, "357,290": 378, "94,61": 379, "638,61": 380, "639,501": 381, "640,96": 382, "363,113": 383, "642,453": 384, "643,526": 385, "339,511": 386, "645,366": 387, "646,393": 388, "261,394": 389, "459,366": 390, "114,637": 391, "100,121": 392, "651,106": 393, "285,43": 394, "35,471": 395, "464,364": 396, "354,274": 397, "532,43": 398, "402,375": 399, "658,103": 400, "659,300": 401, "65,35": 402, "428,428": 403, "270,54": 404, "380,117": 405, "539,94": 406, "374,366": 407, "115,410": 408, "122,107": 409, "668,386": 410, "669,104": 411, "111,344": 412, "56,393": 413, "672,456": 414, "296,440": 415, "343,352": 416, "544,43": 417, "420,101": 418, "94,472": 419, "678,374": 420, "116,120": 421, "680,108": 422, "681,454": 423, "614,72": 424, "683,123": 425, "684,100": 426, "685,438": 427, "475,291": 428, "63,35": 429, "261,285": 430, "375,416": 431, "690,102": 432, "634,52": 433, "49,111": 434, "693,478": 435, "694,43": 436, "362,35": 437, "51,350": 438, "375,342": 439, "104,123": 440, "699,115": 441, "555,104": 442, "701,43": 443, "51,353": 444, "111,274": 445, "429,98": 446, "560,43": 447, "100,108": 448, "462,553": 449, "488,364": 450, "108,124": 451, "566,43": 452, "343,360": 453, "340,58": 454, "340,57": 455, "562,677": 456, "103,108": 457, "120,275": 458, "340,55": 459, "296,52": 460, "356,275": 461, "340,60": 462, "572,413": 463, "35,396": 464, "113,102": 465, "473,473": 466, "270,524": 467, "578,43": 468, "340,54": 469, "704,104": 470, "582,455": 471, "365,382": 472, "341,52": 473, "353,55": 474, "119,516": 475, "401,516": 476, "404,413": 477, "591,369": 478, "737,43": 479, "270,58": 480, "60,35": 481, "108,262": 482, "103,274": 483, "742,106": 484, "296,118": 485, "340,53": 486, "545,297": 487, "601,118": 488, "747,43": 489, "58,35": 490, "363,743": 491, "296,53": 492, "383,297": 493, "707,402": 494, "612,413": 495, "54,49": 496, "51,49": 497, "59,350": 498, "628,413": 499, "629,495": 500, "759,43": 501, "635,455": 502, "100,107": 503, "365,456": 504, "763,124": 505, "603,52": 506, "353,57": 507, "431,297": 508, "385,297": 509, "102,102": 510, "341,53": 511, "580,297": 512, "103,107": 513, "569,124": 514, "773,262": 515, "400,297": 516, "119,339": 517, "285,426": 518, "340,350": 519, "52,54": 520, "589,297": 521, "53,44": 522, "364,51": 523, "436,52": 524, "682,455": 525, "602,720": 526, "785,101": 527, "274,300": 528, "787,587": 529, "788,393": 530, "789,540": 531, "390,710": 532, "791,104": 533, "385,782": 534, "385,35": 535, "794,459": 536, "795,123": 537, "49,118": 538, "340,52": 539, "391,481": 540, "799,102": 541, "800,776": 542, "801,108": 543, "268,421": 544, "285,52": 545, "783,490": 546, "73,108": 547, "806,101": 548, "807,114": 549, "808,418": 550, "809,769": 551, "810,352": 552, "433,369": 553, "812,724": 554, "813,390": 555, "814,275": 556, "434,107": 557, "816,617": 558, "288,433": 559, "364,443": 560, "819,264": 561, "569,427": 562, "433,335": 563, "705,348": 564, "823,281": 565, "270,57": 566, "279,511": 567, "579,364": 568, "797,618": 569, "828,281": 570, "829,44": 571, "595,579": 572, "498,446": 573, "404,120": 574, "833,101": 575, "834,496": 576, "835,360": 577, "485,731": 578, "48,53": 579, "613,346": 580, "839,570": 581, "840,43": 582, "266,453": 583, "842,342": 584, "843,44": 585, "59,96": 586, "113,114": 587, "414,297": 588, "605,297": 589, "371,297": 590, "68,86": 591, "124,357": 592, "851,114": 593, "102,441": 594, "853,102": 595, "609,542": 596, "855,716": 597, "120,378": 598, "285,755": 599, "858,552": 600, "575,60": 601, "860,445": 602, "335,449": 603, "350,57": 604, "35,402": 605, "864,480": 606, "261,383": 607, "108,118": 608, "270,500": 609, "115,478": 610, "350,52": 611, "340,56": 612, "398,660": 613, "467,297": 614, "380,113": 615, "353,56": 616, "592,297": 617, "397,53": 618, "266,102": 619, "878,874": 620, "879,106": 621, "609,109": 622, "881,867": 623, "636,504": 624, "883,35": 625, "417,506": 626, "885,291": 627, "504,262": 628, "285,504": 629, "445,615": 630, "534,51": 631, "35,295": 632, "350,55": 633, "397,54": 634, "391,100": 635, "894,453": 636, "895,100": 637, "896,106": 638, "897,275": 639, "846,291": 640, "285,51": 641, "393,518": 642, "901,595": 643, "652,297": 644, "115,852": 645, "106,266": 646, "905,275": 647, "906,70": 648, "907,525": 649, "908,416": 650, "909,540": 651, "446,73": 652, "911,762": 653, "912,266": 654, "913,113": 655, "451,291": 656, "915,377": 657, "102,288": 658, "653,102": 659, "918,445": 660, "740,518": 661, "920,673": 662, "921,509": 663, "44,350": 664, "73,303": 665, "778,353": 666, "350,53": 667, "509,44": 668, "296,297": 669, "613,88": 670, "929,83": 671, "930,83": 672, "931,72": 673, "932,85": 674, "933,70": 675, "850,72": 676, "935,398": 677, "457,37": 678, "937,37": 679, "376,60": 680, "939,749": 681, "940,510": 682, "647,510": 683, "649,117": 684, "943,43": 685, "647,436": 686, "927,460": 687, "525,342": 688, "650,297": 689, "353,53": 690, "691,297": 691, "270,60": 692, "114,122": 693, "350,54": 694, "350,58": 695, "279,103": 696, "52,57": 697, "402,366": 698, "957,471": 699, "958,570": 700, "517,688": 701, "655,123": 702, "270,59": 703, "497,102": 704, "963,301": 705, "964,426": 706, "494,367": 707, "966,513": 708, "772,955": 709, "968,275": 710, "969,109": 711, "970,274": 712, "636,602": 713, "262,408": 714, "973,279": 715, "974,110": 716, "975,275": 717, "274,295": 718, "977,123": 719, "978,104": 720, "979,378": 721, "744,262": 722, "981,664": 723, "982,429": 724, "288,439": 725, "984,263": 726, "287,126": 727, "986,128": 728, "374,741": 729, "409,104": 730, "989,296": 731, "990,290": 732, "991,100": 733, "401,43": 734, "261,538": 735, "994,364": 736, "664,389": 737, "996,291": 738, "997,436": 739, "998,123": 740, "460,376": 741, "538,430": 742, "1001,539": 743, "689,94": 744, "665,538": 745, "1004,96": 746, "1005,262": 747, "108,96": 748, "1007,460": 749, "665,123": 750, "1009,96": 751, "1010,364": 752, "1011,108": 753, "443,335": 754, "610,96": 755, "495,297": 756, "656,297": 757, "120,37": 758, "53,51": 759, "107,461": 760, "53,59": 761, "356,553": 762, "391,515": 763, "1022,300": 764, "508,492": 765, "1024,113": 766, "1025,291": 767, "1026,489": 768, "667,119": 769, "1028,262": 770, "1029,670": 771, "653,667": 772, "291,518": 773, "1032,670": 774, "1033,393": 775, "382,890": 776, "352,109": 777, "391,112": 778, "1037,346": 779, "1038,119": 780, "1039,108": 781, "1040,618": 782, "102,100": 783, "1042,299": 784, "53,262": 785, "391,74": 786, "1045,70": 787, "1046,71": 788, "288,122": 789, "1048,477": 790, "341,717": 791, "622,121": 792, "952,525": 793, "475,526": 794, "687,470": 795, "376,366": 796, "1055,695": 797, "393,351": 798, "1057,37": 799, "1058,100": 800, "1059,104": 801, "1060,293": 802, "1061,1017": 803, "261,687": 804, "459,52": 805, "475,119": 806, "562,753": 807, "353,58": 808, "925,415": 809, "375,402": 810, "546,297": 811, "102,366": 812, "340,59": 813, "545,359": 814, "391,869": 815, "1074,35": 816, "421,468": 817, "1076,100": 818, "406,352": 819, "698,262": 820, "1079,700": 821, "457,52": 822, "394,45": 823, "1082,287": 824, "52,60": 825, "96,865": 826, "350,60": 827, "597,440": 828, "708,42": 829, "42,576": 830, "1089,268": 831, "1090,461": 832, "1091,449": 833, "695,44": 834, "64,287": 835, "517,661": 836, "709,123": 837, "296,35": 838, "555,275": 839, "333,42": 840, "385,359": 841, "117,108": 842, "1101,377": 843, "1102,696": 844, "285,500": 845, "374,352": 846, "351,529": 847, "1106,1044": 848, "274,281": 849, "45,382": 850, "1109,756": 851, "1110,673": 852, "1111,52": 853, "469,352": 854, "1113,530": 855, "524,335": 856, "383,359": 857, "35,436": 858, "53,56": 859, "431,359": 860, "353,54": 861, "563,288": 862, "409,563": 863, "350,56": 864, "409,414": 865, "52,58": 866, "414,118": 867, "100,1071": 868, "561,288": 869, "409,561": 870, "541,541": 871, "409,296": 872, "115,100": 873, "110,410": 874, "692,288": 875, "120,262": 876, "1135,121": 877, "35,489": 878, "572,533": 879, "580,359": 880, "35,423": 881, "119,275": 882, "409,597": 883, "582,412": 884, "414,359": 885, "400,359": 886, "334,775": 887, "591,717": 888, "53,52": 889, "592,359": 890, "404,533": 891, "334,736": 892, "589,359": 893, "371,359": 894, "467,359": 895, "765,288": 896, "409,603": 897, "729,288": 898, "601,378": 899, "52,59": 900, "735,288": 901, "546,262": 902, "53,55": 903, "904,113": 904, "353,52": 905, "612,533": 906, "51,399": 907, "542,107": 908, "107,120": 909, "53,57": 910, "719,262": 911, "1170,751": 912, "605,359": 913, "100,262": 914, "1173,101": 915, "341,35": 916, "628,533": 917, "629,379": 918, "1177,301": 919, "419,288": 920, "354,351": 921, "439,110": 922, "1181,107": 923, "1182,35": 924, "1183,1167": 925, "1184,300": 926, "491,392": 927, "489,42": 928, "576,478": 929, "296,359": 930, "334,928": 931, "734,288": 932, "353,60": 933, "268,35": 934, "115,262": 935, "1194,116": 936, "353,59": 937, "336,635": 938, "53,60": 939, "650,359": 940, "652,359": 941, "334,903": 942, "110,1193": 943, "1202,375": 944, "1203,100": 945, "1204,125": 946, "1205,1036": 947, "1206,100": 948, "279,106": 949, "1208,100": 950, "1127,300": 951, "662,662": 952, "732,262": 953, "1212,770": 954, "114,103": 955, "495,359": 956, "656,359": 957, "51,51": 958, "397,55": 959, "56,58": 960, "113,262": 961, "1220,112": 962, "682,412": 963, "333,465": 964, "1214,1133": 965, "1224,35": 966, "100,112": 967, "691,359": 968, "671,288": 969, "409,671": 970, "270,48": 971, "49,51": 972, "474,300": 973, "53,58": 974, "546,359": 975, "705,394": 976, "432,728": 977, "442,540": 978, "1237,712": 979, "444,54": 980, "725,725": 981, "120,103": 982, "1241,293": 983, "54,58": 984, "56,55": 985, "450,58": 986, "350,59": 987, "124,100": 988, "353,703": 989, "59,49": 990, "399,59": 991, "741,109": 992, "55,51": 993, "71,76": 994, "397,58": 995, "448,53": 996, "109,335": 997, "53,53": 998, "100,109": 999, "35,469": 1000, "285,120": 1001, "121,335": 1002, "352,382": 1003, "366,100": 1004, "354,344": 1005, "400,421": 1006, "1265,262": 1007, "109,753": 1008, "1180,750": 1009, "1268,35": 1010, "350,697": 1011, "285,263": 1012, "432,96": 1013, "1019,108": 1014, "55,96": 1015, "1019,352": 1016, "404,344": 1017, "474,352": 1018, "458,58": 1019, "285,732": 1020, "770,335": 1021, "53,54": 1022, "101,335": 1023, "397,57": 1024, "300,382": 1025, "597,118": 1026, "463,54": 1027, "340,472": 1028, "35,661": 1029, "399,54": 1030, "418,1264": 1031, "350,51": 1032, "376,899": 1033, "415,60": 1034, "340,51": 1035, "344,1242": 1036, "100,1258": 1037, "1296,35": 1038, "1297,1210": 1039, "1298,103": 1040, "399,52": 1041, "1275,377": 1042, "750,343": 1043, "1302,410": 1044, "1141,471": 1045, "123,291": 1046, "716,105": 1047, "1306,105": 1048, "1307,104": 1049, "1308,266": 1050, "1309,724": 1051, "1310,275": 1052, "720,43": 1053, "463,55": 1054, "285,719": 1055, "751,335": 1056, "733,96": 1057, "285,115": 1058, "116,335": 1059, "399,57": 1060, "100,1247": 1061, "452,57": 1062, "112,335": 1063, "101,387": 1064, "1323,542": 1065, "397,56": 1066, "397,59": 1067, "417,54": 1068, "1136,288": 1069, "452,52": 1070, "53,96": 1071, "415,52": 1072, "1263,352": 1073, "1332,115": 1074, "1333,710": 1075, "1334,114": 1076, "53,49": 1077, "474,365": 1078, "1132,103": 1079, "1251,288": 1080, "94,54": 1081, "35,456": 1082, "397,60": 1083, "692,641": 1084, "425,641": 1085, "353,845": 1086, "399,56": 1087, "35,1238": 1088, "452,55": 1089, "415,57": 1090, "450,56": 1091, "573,55": 1092, "1163,42": 1093, "397,52": 1094, "399,58": 1095, "55,52": 1096, "59,51": 1097, "432,60": 1098, "398,402": 1099, "1168,42": 1100, "101,345": 1101, "35,1094": 1102, "333,54": 1103, "1290,104": 1104, "366,268": 1105, "1364,267": 1106, "1365,1132": 1107, "1366,772": 1108, "593,51": 1109, "1209,42": 1110, "1236,870": 1111, "285,352": 1112, "448,54": 1113, "904,263": 1114, "1373,110": 1115, "1374,352": 1116, "1211,662": 1117, "1221,288": 1118, "113,288": 1119, "55,53": 1120, "418,1226": 1121, "1380,391": 1122, "343,302": 1123, "1382,1225": 1124, "448,56": 1125, "59,448": 1126, "1195,288": 1127, "520,288": 1128, "86,87": 1129, "458,54": 1130, "735,641": 1131, "335,431": 1132, "397,575": 1133, "109,1225": 1134, "614,924": 1135, "1394,110": 1136, "519,1226": 1137, "270,509": 1138, "362,445": 1139, "718,96": 1140, "94,58": 1141, "60,417": 1142, "49,59": 1143, "686,573": 1144, "1324,291": 1145, "1404,354": 1146, "1405,570": 1147, "110,1036": 1148, "1407,707": 1149, "119,1305": 1150, "296,445": 1151, "263,382": 1152, "452,56": 1153, "262,501": 1154, "430,419": 1155, "1396,35": 1156, "262,838": 1157, "452,51": 1158, "415,56": 1159, "450,55": 1160, "54,56": 1161, "619,51": 1162, "399,55": 1163, "1240,725": 1164, "714,96": 1165, "1075,55": 1166, "675,55": 1167, "1426,1188": 1168, "335,371": 1169, "123,288": 1170, "448,52": 1171, "448,58": 1172, "419,641": 1173, "270,838": 1174, "568,111": 1175, "1434,267": 1176, "1435,379": 1177, "1436,111": 1178, "1437,103": 1179, "340,757": 1180, "399,53": 1181, "335,495": 1182, "756,51": 1183, "335,656": 1184, "340,427": 1185, "100,288": 1186, "750,42": 1187, "1130,1130": 1188, "55,55": 1189, "754,94": 1190, "766,96": 1191, "335,605": 1192, "458,52": 1193, "463,59": 1194, "573,51": 1195, "730,94": 1196, "430,735": 1197, "35,1393": 1198, "430,634": 1199, "430,425": 1200, "817,749": 1201, "729,641": 1202, "59,417": 1203, "333,59": 1204, "1075,56": 1205, "675,56": 1206, "1465,1188": 1207, "415,53": 1208, "415,54": 1209, "52,417": 1210, "57,51": 1211, "430,729": 1212, "341,288": 1213, "430,734": 1214, "350,703": 1215, "474,263": 1216, "432,56": 1217, "448,55": 1218, "285,365": 1219, "458,55": 1220, "55,58": 1221, "350,472": 1222, "399,51": 1223, "387,418": 1224, "432,52": 1225, "432,57": 1226, "58,417": 1227, "108,818": 1228, "627,108": 1229, "270,501": 1230, "1273,42": 1231, "567,1352": 1232, "1368,509": 1233, "1492,51": 1234, "56,54": 1235, "450,52": 1236, "353,757": 1237, "397,779": 1238, "335,296": 1239, "116,345": 1240, "1067,96": 1241, "102,108": 1242, "1501,121": 1243, "1502,108": 1244, "1503,102": 1245, "573,56": 1246, "1174,288": 1247, "663,57": 1248, "444,55": 1249, "121,345": 1250, "353,472": 1251, "702,42": 1252, "124,335": 1253, "657,42": 1254, "1020,1219": 1255, "1514,552": 1256, "734,641": 1257, "1276,42": 1258, "542,492": 1259, "1518,102": 1260, "1519,410": 1261, "686,593": 1262, "55,54": 1263, "118,641": 1264, "57,458": 1265, "463,60": 1266, "113,108": 1267, "270,428": 1268, "353,427": 1269, "270,83": 1270, "1529,92": 1271, "1530,87": 1272, "1531,75": 1273, "1532,82": 1274, "1533,81": 1275, "54,51": 1276, "285,100": 1277, "463,57": 1278, "444,53": 1279, "333,58": 1280, "1421,1252": 1281, "399,96": 1282, "827,729": 1283, "450,60": 1284, "55,59": 1285, "377,402": 1286, "285,300": 1287, "399,703": 1288, "1295,42": 1289, "351,489": 1290, "351,1187": 1291, "353,51": 1292, "399,60": 1293, "1304,42": 1294, "340,845": 1295, "450,51": 1296, "415,55": 1297, "54,55": 1298, "340,96": 1299, "48,55": 1300, "1292,414": 1301, "587,1126": 1302, "1236,96": 1303, "448,60": 1304, "124,345": 1305, "686,452": 1306, "893,58": 1307, "697,54": 1308, "463,58": 1309, "861,1284": 1310, "1569,100": 1311, "432,53": 1312, "399,472": 1313, "108,288": 1314, "432,58": 1315, "463,52": 1316, "54,59": 1317, "1075,53": 1318, "675,535": 1319, "1578,869": 1320, "448,59": 1321, "335,400": 1322, "657,94": 1323, "414,288": 1324, "417,58": 1325, "54,57": 1326, "686,739": 1327, "704,275": 1328, "686,663": 1329, "397,594": 1330, "110,1320": 1331, "1590,110": 1332, "432,55": 1333, "535,1238": 1334, "1335,42": 1335, "335,589": 1336, "817,59": 1337, "676,42": 1338, "721,96": 1339, "899,561": 1340, "587,561": 1341, "902,561": 1342, "748,42": 1343, "112,345": 1344, "452,1217": 1345, "432,54": 1346, "761,42": 1347, "761,94": 1348, "1338,489": 1349, "1338,1187": 1350, "745,96": 1351, "270,1388": 1352, "1611,88": 1353, "1612,1253": 1354, "1613,82": 1355, "270,70": 1356, "1615,82": 1357, "1616,1253": 1358, "1617,81": 1359, "1618,74": 1360, "727,42": 1361, "827,734": 1362, "55,60": 1363, "1108,300": 1364, "376,300": 1365, "335,652": 1366, "739,1249": 1367, "417,59": 1368, "838,54": 1369, "675,696": 1370, "458,57": 1371, "100,42": 1372, "702,94": 1373, "875,96": 1374, "713,96": 1375, "535,471": 1376, "650,567": 1377, "285,764": 1378, "463,53": 1379, "60,802": 1380, "1507,1020": 1381, "1640,1356": 1382, "333,55": 1383, "697,58": 1384, "758,94": 1385, "778,96": 1386, "49,57": 1387, "350,845": 1388, "458,96": 1389, "410,1133": 1390, "722,94": 1391, "1371,456": 1392, "419,364": 1393, "1652,419": 1394, "419,1361": 1395, "824,94": 1396, "1097,510": 1397, "861,1411": 1398, "1657,113": 1399, "1363,42": 1400, "827,735": 1401, "53,417": 1402, "736,94": 1403, "270,486": 1404, "1141,489": 1405, "1141,1187": 1406, "397,552": 1407, "56,59": 1408, "452,58": 1409, "350,427": 1410, "817,740": 1411, "1370,96": 1412, "779,417": 1413, "1069,534": 1414, "1078,534": 1415, "692,364": 1416, "1675,692": 1417, "692,1361": 1418, "1505,1231": 1419, "760,42": 1420, "675,1175": 1421, "285,1175": 1422, "473,55": 1423, "817,534": 1424, "954,96": 1425, "592,567": 1426, "398,677": 1427, "60,51": 1428, "949,96": 1429, "452,1336": 1430, "899,563": 1431, "587,563": 1432, "902,563": 1433, "123,818": 1434, "627,123": 1435, "1527,49": 1436, "397,956": 1437, "817,55": 1438, "1186,382": 1439, "54,60": 1440, "827,692": 1441, "450,96": 1442, "71,114": 1443, "435,56": 1444, "341,445": 1445, "706,42": 1446, "296,288": 1447, "59,55": 1448, "458,56": 1449, "78,1483": 1450, "415,472": 1451, "450,59": 1452, "951,59": 1453, "60,55": 1454, "736,42": 1455, "55,56": 1456, "268,716": 1457, "675,263": 1458, "1717,631": 1459, "414,567": 1460, "1260,1117": 1461, "452,1018": 1462, "333,57": 1463, "711,94": 1464, "1075,54": 1465, "675,54": 1466, "1725,1188": 1467, "463,56": 1468, "383,567": 1469, "285,1262": 1470, "1136,364": 1471, "1730,121": 1472, "1731,262": 1473, "1732,120": 1474, "1259,121": 1475, "120,335": 1476, "1050,382": 1477, "458,51": 1478, "675,1050": 1479, "1097,688": 1480, "1108,1097": 1481, "376,1097": 1482, "58,56": 1483, "732,1288": 1484, "1743,341": 1485, "972,56": 1486, "350,96": 1487, "401,1305": 1488, "722,42": 1489, "432,472": 1490, "1408,42": 1491, "463,575": 1492, "676,94": 1493, "1409,287": 1494, "1753,734": 1495, "1409,1094": 1496, "1271,456": 1497, "60,57": 1498, "857,56": 1499, "1758,1137": 1500, "56,923": 1501, "1626,1244": 1502, "54,52": 1503, "798,96": 1504, "861,731": 1505, "1764,123": 1506, "75,461": 1507, "1766,108": 1508, "81,1320": 1509, "758,42": 1510, "458,53": 1511, "353,96": 1512, "962,52": 1513, "962,60": 1514, "738,42": 1515, "270,81": 1516, "1775,68": 1517, "1776,80": 1518, "1777,850": 1519, "1778,87": 1520, "1779,72": 1521, "1438,42": 1522, "863,96": 1523, "57,96": 1524, "333,56": 1525, "463,552": 1526, "522,56": 1527, "706,94": 1528, "397,1084": 1529, "1260,445": 1530, "617,296": 1531, "364,751": 1532, "1791,262": 1533, "719,1259": 1534, "1793,751": 1535, "719,335": 1536, "727,94": 1537, "1292,296": 1538, "587,744": 1539, "902,744": 1540, "825,55": 1541, "827,419": 1542, "427,54": 1543, "825,54": 1544, "1329,49": 1545, "1447,1130": 1546, "899,671": 1547, "587,671": 1548, "902,671": 1549, "428,57": 1550, "59,52": 1551, "340,703": 1552, "397,1125": 1553, "535,489": 1554, "593,56": 1555, "738,94": 1556, "52,1231": 1557, "593,57": 1558, "675,365": 1559, "1818,631": 1560, "333,120": 1561, "52,757": 1562, "817,57": 1563, "270,75": 1564, "1823,76": 1565, "1824,81": 1566, "1825,1253": 1567, "397,428": 1568, "798,733": 1569, "57,52": 1570, "463,594": 1571, "432,59": 1572, "926,96": 1573, "435,42": 1574, "425,364": 1575, "493,1094": 1576, "270,406": 1577, "1836,762": 1578, "59,54": 1579, "109,345": 1580, "417,552": 1581, "467,567": 1582, "1186,456": 1583, "444,1257": 1584, "1248,60": 1585, "100,841": 1586, "270,762": 1587, "1846,769": 1588, "51,891": 1589, "827,118": 1590, "113,818": 1591, "627,113": 1592, "444,57": 1593, "951,56": 1594, "1195,364": 1595, "1854,116": 1596, "1855,262": 1597, "1856,115": 1598, "1259,116": 1599, "115,335": 1600, "100,818": 1601, "627,100": 1602, "350,757": 1603, "1239,55": 1604, "1108,352": 1605, "376,352": 1606, "1504,42": 1607, "619,56": 1608, "59,967": 1609, "270,51": 1610, "48,59": 1611, "817,56": 1612, "925,96": 1613, "748,94": 1614, "696,688": 1615, "1108,696": 1616, "376,696": 1617, "962,55": 1618, "474,115": 1619, "663,56": 1620, "1186,436": 1621, "458,59": 1622, "703,58": 1623, "1164,96": 1624, "397,1159": 1625, "861,1262": 1626, "1885,108": 1627, "780,58": 1628, "721,870": 1629, "545,567": 1630, "857,740": 1631, "1890,489": 1632, "60,923": 1633, "573,1244": 1634, "1893,49": 1635, "1894,1480": 1636, "1702,344": 1637, "118,114": 1638, "1348,49": 1639, "1898,1515": 1640, "1515,1020": 1641, "1900,56": 1642, "575,417": 1643, "86,119": 1644, "1903,1242": 1645, "415,51": 1646, "403,447": 1647, "1906,111": 1648, "60,54": 1649, "877,55": 1650, "1317,1117": 1651, "418,1247": 1652, "749,295": 1653, "58,49": 1654, "397,541": 1655, "861,1410": 1656, "57,60": 1657, "1478,436": 1658, "857,55": 1659, "1918,1137": 1660, "55,923": 1661, "619,756": 1662, "1921,1233": 1663, "1260,1341": 1664, "432,51": 1665, "1174,364": 1666, "1925,101": 1667, "1926,262": 1668, "1927,300": 1669, "469,101": 1670, "100,335": 1671, "542,103": 1672, "1931,410": 1673, "714,1439": 1674, "713,892": 1675, "270,71": 1676, "1935,82": 1677, "1936,1388": 1678, "1520,42": 1679, "1166,54": 1680, "444,956": 1681, "1324,119": 1682, "1290,275": 1683, "1942,103": 1684, "1943,279": 1685, "56,52": 1686, "432,1330": 1687, "285,108": 1688, "1186,661": 1689, "285,546": 1690, "397,534": 1691, "774,365": 1692, "469,124": 1693, "123,335": 1694, "450,721": 1695, "270,846": 1696, "1955,107": 1697, "1956,119": 1698, "1957,124": 1699, "619,1442": 1700, "417,1020": 1701, "953,96": 1702, "448,96": 1703, "463,779": 1704, "444,1169": 1705, "739,56": 1706, "1239,59": 1707, "1120,96": 1708, "857,52": 1709, "1221,364": 1710, "1969,112": 1711, "1970,262": 1712, "1971,263": 1713, "469,112": 1714, "113,335": 1715, "951,58": 1716, "490,296": 1717, "875,766": 1718, "52,427": 1719, "1123,96": 1720, "899,603": 1721, "587,765": 1722, "57,54": 1723, "534,417": 1724, "1317,445": 1725, "877,427": 1726, "697,53": 1727, "522,54": 1728, "951,52": 1729, "1604,1217": 1730, "57,59": 1731, "444,594": 1732, "415,96": 1733, "892,96": 1734, "711,42": 1735, "719,1358": 1736, "848,58": 1737, "522,58": 1738, "463,956": 1739, "739,51": 1740, "1271,382": 1741, "59,56": 1742, "285,123": 1743, "1267,501": 1744, "956,654": 1745, "444,509": 1746, "857,59": 1747, "2006,1137": 1748, "59,923": 1749, "1454,1816": 1750, "2009,57": 1751, "55,967": 1752, "1069,58": 1753, "1078,58": 1754, "877,52": 1755, "1358,121": 1756, "1069,55": 1757, "1078,55": 1758, "57,55": 1759, "719,1288": 1760, "2019,296": 1761, "417,1084": 1762, "385,567": 1763, "1292,597": 1764, "587,1285": 1765, "58,967": 1766, "617,467": 1767, "467,364": 1768, "467,262": 1769, "1186,469": 1770, "696,510": 1771, "448,57": 1772, "1587,287": 1773, "2032,729": 1774, "1587,1094": 1775, "522,60": 1776, "824,42": 1777, "697,56": 1778, "1591,42": 1779, "871,96": 1780, "52,967": 1781, "1319,96": 1782, "951,51": 1783, "415,58": 1784, "435,54": 1785, "1050,688": 1786, "1108,1050": 1787, "376,1050": 1788, "1210,489": 1789, "1210,1187": 1790, "1162,892": 1791, "1263,476": 1792, "732,1358": 1793, "53,967": 1794, "109,1716": 1795, "617,341": 1796, "364,770": 1797, "2056,262": 1798, "732,1259": 1799, "2058,770": 1800, "732,335": 1801, "463,534": 1802, "1663,1526": 1803, "463,1084": 1804, "1293,96": 1805, "1233,654": 1806, "53,399": 1807, "877,54": 1808, "733,766": 1809, "463,1281": 1810, "893,57": 1811, "448,427": 1812, "675,352": 1813, "2072,631": 1814, "55,57": 1815, "353,697": 1816, "1321,49": 1817, "784,94": 1818, "1317,1341": 1819, "55,1023": 1820, "745,713": 1821, "83,852": 1822, "2081,113": 1823, "877,60": 1824, "452,1442": 1825, "415,745": 1826, "1050,510": 1827, "740,295": 1828, "60,654": 1829, "448,1120": 1830, "893,52": 1831, "739,60": 1832, "56,56": 1833, "450,1166": 1834, "474,120": 1835, "427,57": 1836, "1192,96": 1837, "270,119": 1838, "1281,654": 1839, "270,114": 1840, "2099,486": 1841, "2100,269": 1842, "1546,456": 1843, "708,1494": 1844, "573,58": 1845, "444,552": 1846, "861,1704": 1847, "450,54": 1848, "110,1483": 1849, "56,53": 1850, "285,113": 1851, "118,1649": 1852, "270,542": 1853, "2112,110": 1854, "2113,542": 1855, "766,399": 1856, "49,1742": 1857, "452,54": 1858, "449,776": 1859, "1166,52": 1860, "399,427": 1861, "48,54": 1862, "452,59": 1863, "757,472": 1864, "953,458": 1865, "57,58": 1866, "458,870": 1867, "1125,417": 1868, "57,417": 1869, "450,57": 1870, "697,57": 1871, "826,657": 1872, "593,55": 1873, "86,1649": 1874, "798,721": 1875, "68,1071": 1876, "354,547": 1877, "2136,112": 1878, "739,1018": 1879, "333,501": 1880, "397,509": 1881, "1069,59": 1882, "1078,59": 1883, "714,871": 1884, "1444,54": 1885, "926,1086": 1886, "1709,42": 1887, "1837,78": 1888, "962,57": 1889, "784,42": 1890, "270,1132": 1891, "2150,762": 1892, "1663,111": 1893, "333,1162": 1894, "432,845": 1895, "502,1127": 1896, "1127,1631": 1897, "1847,100": 1898, "57,44": 1899, "1198,654": 1900, "450,718": 1901, "593,1336": 1902, "697,59": 1903, "663,51": 1904, "350,713": 1905, "718,340": 1906, "1166,427": 1907, "875,1196": 1908, "875,1345": 1909, "440,118": 1910, "2169,364": 1911, "118,1093": 1912, "378,1094": 1913, "2172,1523": 1914, "444,534": 1915, "59,1023": 1916, "686,962": 1917, "270,106": 1918, "2177,1526": 1919, "2178,404": 1920, "333,300": 1921, "1545,101": 1922, "1546,436": 1923, "708,1355": 1924, "1175,688": 1925, "1108,1175": 1926, "376,1175": 1927, "1547,53": 1928, "1291,432": 1929, "48,60": 1930, "1230,60": 1931, "593,59": 1932, "60,52": 1933, "1148,654": 1934, "463,1198": 1935, "1084,417": 1936, "49,53": 1937, "619,1249": 1938, "567,1446": 1939, "1689,56": 1940, "1069,541": 1941, "1078,541": 1942, "60,96": 1943, "35,1381": 1944, "1747,287": 1945, "2204,735": 1946, "1747,1094": 1947, "962,56": 1948, "52,798": 1949, "956,417": 1950, "686,951": 1951, "1327,52": 1952, "1108,365": 1953, "884,1159": 1954, "884,1118": 1955, "857,575": 1956, "2215,1137": 1957, "575,923": 1958, "1999,57": 1959, "2218,1402": 1960, "2219,57": 1961, "686,825": 1962, "826,702": 1963, "415,1274": 1964, "567,1490": 1965, "57,399": 1966, "448,353": 1967, "60,59": 1968, "619,55": 1969, "757,52": 1970, "754,42": 1971, "1452,96": 1972, "364,838": 1973, "1346,96": 1974, "857,54": 1975, "2234,1137": 1976, "54,923": 1977, "573,1249": 1978, "2237,1233": 1979, "706,56": 1980, "1254,56": 1981, "545,1286": 1982, "893,51": 1983, "962,54": 1984, "884,53": 1985, "573,59": 1986, "417,121": 1987, "1767,42": 1988, "2062,75": 1989, "857,1813": 1990, "781,350": 1991, "1689,1219": 1992, "502,1768": 1993, "1768,42": 1994, "270,1320": 1995, "2254,81": 1996, "1069,56": 1997, "1078,56": 1998, "56,51": 1999, "825,56": 2000, "730,42": 2001, "54,967": 2002, "54,654": 2003, "58,57": 2004, "857,552": 2005, "2264,1137": 2006, "552,923": 2007, "825,575": 2008, "2267,2116": 2009, "56,871": 2010, "1196,450": 2011, "353,432": 2012, "703,53": 2013, "721,399": 2014, "857,57": 2015, "2274,1137": 2016, "57,923": 2017, "1329,755": 2018, "2277,52": 2019, "57,1023": 2020, "663,60": 2021, "1069,54": 2022, "1078,54": 2023, "1271,436": 2024, "59,399": 2025, "448,798": 2026, "757,57": 2027, "102,111": 2028, "2287,590": 2029, "342,111": 2030, "2289,105": 2031, "285,1284": 2032, "703,52": 2033, "884,552": 2034, "739,55": 2035, "926,953": 2036, "59,60": 2037, "417,838": 2038, "51,1023": 2039, "1175,510": 2040, "893,59": 2041, "340,353": 2042, "399,1496": 2043, "1454,58": 2044, "340,715": 2045, "857,749": 2046, "2305,489": 2047, "58,923": 2048, "1412,755": 2049, "2308,1713": 2050, "1327,55": 2051, "1267,48": 2052, "1267,838": 2053, "56,891": 2054, "57,353": 2055, "962,53": 2056, "719,417": 2057, "51,417": 2058, "427,51": 2059, "458,450": 2060, "444,1020": 2061, "1958,115": 2062, "619,59": 2063, "1069,53": 2064, "1078,53": 2065, "1384,96": 2066, "619,755": 2067, "2161,59": 2068, "1293,715": 2069, "1248,55": 2070, "1294,1567": 2071, "1255,713": 2072, "1148,1047": 2073, "52,870": 2074, "884,54": 2075, "1118,654": 2076, "738,58": 2077, "760,59": 2078, "397,1219": 2079, "1331,715": 2080, "463,1219": 2081, "1331,96": 2082, "1327,59": 2083, "893,55": 2084, "1468,96": 2085, "52,415": 2086, "1340,57": 2087, "534,353": 2088, "1067,715": 2089, "450,472": 2090, "1800,49": 2091, "1418,96": 2092, "758,1400": 2093, "1372,96": 2094, "2179,102": 2095, "1371,436": 2096, "333,365": 2097, "452,541": 2098, "52,353": 2099, "1638,427": 2100, "458,949": 2101, "594,417": 2102, "417,1169": 2103, "458,472": 2104, "534,399": 2105, "1559,891": 2106, "1351,1402": 2107, "77,1716": 2108, "863,733": 2109, "432,448": 2110, "708,779": 2111, "552,417": 2112, "1289,96": 2113, "333,48": 2114, "884,1018": 2115, "452,1356": 2116, "746,108": 2117, "57,891": 2118, "733,875": 2119, "663,1249": 2120, "798,399": 2121, "1248,58": 2122, "949,954": 2123, "739,52": 2124, "58,954": 2125, "463,1125": 2126, "364,48": 2127, "1230,56": 2128, "718,58": 2129, "1250,1354": 2130, "397,890": 2131, "1159,417": 2132, "580,1313": 2133, "573,57": 2134, "1968,1813": 2135, "594,923": 2136, "1814,1336": 2137, "2396,1699": 2138, "1477,1749": 2139, "60,53": 2140, "463,1159": 2141, "1433,55": 2142, "573,1252": 2143, "333,1018": 2144, "1239,1166": 2145, "1230,55": 2146, "884,1281": 2147, "333,1169": 2148, "826,711": 2149, "1246,733": 2150, "1069,594": 2151, "1078,594": 2152, "502,1896": 2153, "1896,42": 2154, "2097,1897": 2155, "2414,71": 2156, "57,654": 2157, "1417,56": 2158, "825,755": 2159, "1904,42": 2160, "2101,86": 2161, "56,60": 2162, "619,1336": 2163, "1072,415": 2164, "501,59": 2165, "1907,42": 2166, "972,1585": 2167, "2426,654": 2168, "593,1249": 2169, "53,871": 2170, "58,51": 2171, "333,115": 2172, "1230,54": 2173, "333,1252": 2174, "546,567": 2175, "1669,60": 2176, "779,654": 2177, "502,1911": 2178, "1911,42": 2179, "270,100": 2180, "2439,124": 2181, "2440,406": 2182, "826,748": 2183, "52,49": 2184, "877,51": 2185, "1245,1278": 2186, "399,892": 2187, "58,415": 2188, "1321,1356": 2189, "2448,58": 2190, "450,2229": 2191, "458,1330": 2192, "53,350": 2193, "54,954": 2194, "1580,1349": 2195, "686,619": 2196, "1283,60": 2197, "415,59": 2198, "953,1345": 2199, "399,845": 2200, "733,1293": 2201, "745,1346": 2202, "675,300": 2203, "2462,631": 2204, "740,436": 2205, "1745,1635": 2206, "877,58": 2207, "60,56": 2208, "333,352": 2209, "55,417": 2210, "760,94": 2211, "52,535": 2212, "863,432": 2213, "1932,42": 2214, "1198,1047": 2215, "1325,53": 2216, "711,58": 2217, "714,415": 2218, "1018,1047": 2219, "397,1244": 2220, "884,57": 2221, "870,458": 2222, "697,1524": 2223, "722,59": 2224, "697,55": 2225, "534,1023": 2226, "1270,57": 2227, "1413,60": 2228, "951,1249": 2229, "2488,57": 2230, "1667,1482": 2231, "463,541": 2232, "463,1243": 2233, "333,263": 2234, "1545,112": 2235, "593,60": 2236, "663,59": 2237, "757,59": 2238, "1941,42": 2239, "444,1162": 2240, "825,59": 2241, "55,415": 2242, "710,100": 2243, "710,1631": 2244, "884,1148": 2245, "1416,52": 2246, "713,949": 2247, "406,418": 2248, "1021,1707": 2249, "1327,60": 2250, "1567,713": 2251, "884,58": 2252, "1246,399": 2253, "68,1526": 2254, "2513,112": 2255, "2288,378": 2256, "418,112": 2257, "2516,104": 2258, "69,471": 2259, "2518,122": 2260, "80,104": 2261, "2520,952": 2262, "70,387": 2263, "2522,476": 2264, "714,766": 2265, "926,450": 2266, "48,1535": 2267, "718,1287": 2268, "1687,432": 2269, "951,60": 2270, "399,1330": 2271, "1067,415": 2272, "53,1468": 2273, "450,697": 2274, "1270,58": 2275, "1933,52": 2276, "1248,52": 2277, "415,892": 2278, "1474,58": 2279, "1164,954": 2280, "863,954": 2281, "713,871": 2282, "448,472": 2283, "1270,56": 2284, "1389,340": 2285, "1289,353": 2286, "1255,715": 2287, "1255,96": 2288, "736,1340": 2289, "730,501": 2290, "780,54": 2291, "2051,42": 2292, "2151,102": 2293, "270,104": 2294, "2553,119": 2295, "2554,420": 2296, "2555,354": 2297, "501,54": 2298, "48,58": 2299, "1413,54": 2300, "262,51": 2301, "333,838": 2302, "877,53": 2303, "2054,42": 2304, "2152,1258": 2305, "1844,96": 2306, "364,2158": 2307, "1218,56": 2308, "1313,56": 2309, "1489,59": 2310, "903,54": 2311, "1186,408": 2312, "52,953": 2313, "702,59": 2314, "739,54": 2315, "718,766": 2316, "2326,51": 2317, "657,60": 2318, "884,1198": 2319, "415,458": 2320, "779,1291": 2321, "541,1047": 2322, "58,798": 2323, "766,1345": 2324, "1968,1137": 2325, "52,923": 2326, "663,49": 2327, "2586,552": 2328, "745,949": 2329, "1286,55": 2330, "708,1198": 2331, "1604,51": 2332, "1283,51": 2333, "663,55": 2334, "427,60": 2335, "926,1572": 2336, "495,567": 2337, "2188,1287": 2338, "1239,57": 2339, "1117,594": 2340, "573,60": 2341, "262,1870": 2342, "1230,59": 2343, "703,55": 2344, "711,56": 2345, "1021,1198": 2346, "594,399": 2347, "2082,42": 2348, "1958,83": 2349, "333,1379": 2350, "863,1510": 2351, "59,458": 2352, "1016,123": 2353, "731,1016": 2354, "2368,432": 2355, "452,60": 2356, "1086,1248": 2357, "1582,55": 2358, "1528,57": 2359, "534,415": 2360, "1989,51": 2361, "718,458": 2362, "399,721": 2363, "1723,779": 2364, "452,552": 2365, "467,1313": 2366, "775,57": 2367, "708,1420": 2368, "728,448": 2369, "541,399": 2370, "1348,57": 2371, "2630,1355": 2372, "417,1257": 2373, "58,52": 2374, "1327,56": 2375, "52,1563": 2376, "56,44": 2377, "825,60": 2378, "450,1067": 2379, "1326,55": 2380, "1453,55": 2381, "708,1118": 2382, "714,718": 2383, "1497,733": 2384, "739,59": 2385, "826,780": 2386, "752,57": 2387, "863,1248": 2388, "1817,49": 2389, "53,353": 2390, "467,1525": 2391, "1392,350": 2392, "676,60": 2393, "972,2018": 2394, "2653,654": 2395, "676,123": 2396, "1348,55": 2397, "1086,715": 2398, "1086,96": 2399, "575,1294": 2400, "884,1020": 2401, "57,598": 2402, "1169,417": 2403, "619,54": 2404, "730,57": 2405, "746,58": 2406, "728,863": 2407, "1358,116": 2408, "876,55": 2409, "463,428": 2410, "452,428": 2411, "304,637": 2412, "779,721": 2413, "847,1169": 2414, "1626,59": 2415, "708,1522": 2416, "708,541": 2417, "2108,42": 2418, "1837,110": 2419, "708,1148": 2420, "1016,58": 2421, "892,1481": 2422, "1452,715": 2423, "2111,42": 2424, "2114,118": 2425, "448,450": 2426, "739,57": 2427, "567,1548": 2428, "730,58": 2429, "713,715": 2430, "60,1479": 2431, "2118,42": 2432, "60,728": 2433, "721,350": 2434, "60,967": 2435, "1354,96": 2436, "962,59": 2437, "893,56": 2438, "452,1557": 2439, "746,55": 2440, "53,798": 2441, "956,1291": 2442, "1397,51": 2443, "826,722": 2444, "1248,57": 2445, "60,450": 2446, "552,654": 2447, "593,58": 2448, "2122,53": 2449, "408,109": 2450, "757,53": 2451, "60,1319": 2452, "1431,96": 2453, "798,1610": 2454, "59,654": 2455, "417,1252": 2456, "736,60": 2457, "884,1162": 2458, "1545,124": 2459, "757,55": 2460, "721,1164": 2461, "522,55": 2462, "1239,427": 2463, "501,57": 2464, "417,501": 2465, "1457,48": 2466, "1230,1576": 2467, "371,567": 2468, "926,432": 2469, "768,575": 2470, "452,1420": 2471, "766,1192": 2472, "490,652": 2473, "1286,51": 2474, "522,57": 2475, "1230,57": 2476, "972,1219": 2477, "2736,654": 2478, "761,56": 2479, "714,1072": 2480, "444,1159": 2481, "501,60": 2482, "676,56": 2483, "2133,42": 2484, "2114,86": 2485, "51,1574": 2486, "826,1015": 2487, "49,56": 2488, "730,54": 2489, "1321,60": 2490, "708,2471": 2491, "435,59": 2492, "1294,432": 2493, "2752,1072": 2494, "873,58": 2495, "535,295": 2496, "1084,654": 2497, "567,1517": 2498, "1069,57": 2499, "1078,57": 2500, "502,2135": 2501, "2135,1631": 2502, "1847,68": 2503, "573,53": 2504, "1476,96": 2505, "1312,1169": 2506, "1319,1246": 2507, "1351,54": 2508, "708,1243": 2509, "385,1313": 2510, "2500,1231": 2511, "1270,472": 2512, "399,1166": 2513, "1069,60": 2514, "1078,60": 2515, "2137,42": 2516, "1416,54": 2517, "333,1118": 2518, "350,871": 2519, "399,1510": 2520, "972,1715": 2521, "2780,654": 2522, "333,428": 2523, "702,534": 2524, "757,51": 2525, "353,1643": 2526, "448,1771": 2527, "718,1648": 2528, "1702,106": 2529, "70,100": 2530, "2514,268": 2531, "305,1897": 2532, "2791,826": 2533, "285,37": 2534, "37,306": 2535, "35,2519": 2536, "35,2521": 2537, "1254,58": 2538, "417,53": 2539, "877,56": 2540, "728,96": 2541, "1489,56": 2542, "702,60": 2543, "892,350": 2544, "2803,1196": 2545, "399,350": 2546, "573,1442": 2547, "1416,55": 2548, "1162,654": 2549, "435,120": 2550, "1278,96": 2551, "780,100": 2552, "1284,780": 2553, "884,534": 2554, "1368,1757": 2555, "728,1072": 2556, "435,1470": 2557, "1479,448": 2558, "573,534": 2559, "35,783": 2560, "949,2075": 2561, "573,52": 2562, "56,1482": 2563, "592,463": 2564, "1118,871": 2565, "567,1180": 2566, "522,59": 2567, "1267,1628": 2568, "1294,415": 2569, "708,58": 2570, "2829,576": 2571, "663,594": 2572, "2831,56": 2573, "697,926": 2574, "1340,59": 2575, "53,427": 2576, "417,1125": 2577, "452,1257": 2578, "398,753": 2579, "417,1118": 2580, "849,296": 2581, "593,53": 2582, "399,399": 2583, "415,845": 2584, "58,1250": 2585, "414,1568": 2586, "58,654": 2587, "675,1097": 2588, "285,1097": 2589, "697,52": 2590, "713,2041": 2591, "270,443": 2592, "713,721": 2593, "501,52": 2594, "1218,54": 2595, "270,473": 2596, "450,845": 2597, "1300,96": 2598, "739,58": 2599, "458,60": 2600, "350,1484": 2601, "2860,1770": 2602, "1326,53": 2603, "1357,1331": 2604, "1453,53": 2605, "60,1067": 2606, "2865,1250": 2607, "1120,1710": 2608, "435,501": 2609, "663,756": 2610, "2869,53": 2611, "713,1278": 2612, "2871,1357": 2613, "1711,1592": 2614, "2556,113": 2615, "1084,1840": 2616, "1084,718": 2617, "573,473": 2618, "1433,51": 2619, "417,51": 2620, "1628,1457": 2621, "1439,2314": 2622, "1291,448": 2623, "593,54": 2624, "1524,53": 2625, "2884,2154": 2626, "81,100": 2627, "2886,1264": 2628, "2887,104": 2629, "567,2156": 2630, "1397,1231": 2631, "1117,1243": 2632, "884,1169": 2633, "948,59": 2634, "1293,1563": 2635, "2894,1484": 2636, "784,58": 2637, "1416,60": 2638, "534,1047": 2639, "1528,340": 2640, "857,534": 2641, "2900,1137": 2642, "727,534": 2643, "663,552": 2644, "2903,49": 2645, "2904,956": 2646, "1666,458": 2647, "745,1072": 2648, "1164,2575": 2649, "771,59": 2650, "746,53": 2651, "1021,1169": 2652, "1278,1120": 2653, "745,1418": 2654, "2913,399": 2655, "1291,1419": 2656, "605,567": 2657, "892,2329": 2658, "754,54": 2659, "1326,54": 2660, "1495,2331": 2661, "1453,54": 2662, "1496,55": 2663, "2922,1067": 2664, "385,1537": 2665, "399,1294": 2666, "2925,448": 2667, "1198,954": 2668, "739,1838": 2669, "738,54": 2670, "1353,2165": 2671, "1538,1862": 2672, "1672,1018": 2673, "573,1470": 2674, "2068,1196": 2675, "1245,1354": 2676, "2935,1346": 2677, "432,1120": 2678, "51,1592": 2679, "2938,1123": 2680, "2939,458": 2681, "333,1244": 2682, "1245,1571": 2683, "2588,340": 2684, "1468,715": 2685, "1353,415": 2686, "798,1072": 2687, "972,2159": 2688, "448,875": 2689, "2948,1422": 2690, "1605,1419": 2691, "2071,52": 2692, "1325,1166": 2693, "1385,51": 2694, "2953,2349": 2695, "691,567": 2696, "884,1125": 2697, "745,1354": 2698, "1418,715": 2699, "1021,1219": 2700, "59,53": 2701, "54,1574": 2702, "2961,1543": 2703, "1372,715": 2704, "893,745": 2705, "452,53": 2706, "1283,54": 2707, "1067,1287": 2708, "70,114": 2709, "2968,743": 2710, "2187,450": 2711, "748,2346": 2712, "1312,1355": 2713, "2599,364": 2714, "730,1159": 2715, "1353,871": 2716, "1575,871": 2717, "2075,1274": 2718, "746,534": 2719, "1084,340": 2720, "2979,552": 2721, "2358,714": 2722, "870,2080": 2723, "450,875": 2724, "534,350": 2725, "849,1136": 2726, "1580,415": 2727, "2986,1571": 2728, "875,2363": 2729, "1327,51": 2730, "2083,745": 2731, "863,415": 2732, "1528,58": 2733, "2194,745": 2734, "1687,450": 2735, "2994,1217": 2736, "2367,42": 2737, "2152,100": 2738, "2997,77": 2739, "458,2188": 2740, "1086,863": 2741, "722,1084": 2742, "1218,2085": 2743, "2616,56": 2744, "1118,926": 2745, "3004,56": 2746, "1666,871": 2747, "1785,871": 2748, "452,1198": 2749, "1342,55": 2750, "1605,1552": 2751, "3010,1737": 2752, "432,715": 2753, "1467,2372": 2754, "1412,1402": 2755, "746,352": 2756, "1964,1246": 2757, "432,1345": 2758, "417,956": 2759, "2378,798": 2760, "1983,1125": 2761, "1978,58": 2762, "1668,51": 2763, "1742,458": 2764, "3023,1217": 2765, "1326,52": 2766, "1120,953": 2767, "2628,2325": 2768, "350,1166": 2769, "2380,1802": 2770, "1164,870": 2771, "2381,458": 2772, "1551,458": 2773, "767,1379": 2774, "458,1291": 2775, "847,100": 2776, "847,58": 2777, "333,1448": 2778, "758,1340": 2779, "1547,2384": 2780, "718,1086": 2781, "1508,427": 2782, "1643,353": 2783, "3042,892": 2784, "546,1638": 2785, "1622,2388": 2786, "333,1148": 2787, "767,1148": 2788, "1444,2333": 2789, "1745,2088": 2790, "754,594": 2791, "1319,340": 2792, "3051,1300": 2793, "1412,51": 2794, "2389,458": 2795, "1643,798": 2796, "754,296": 2797, "1255,1294": 2798, "3057,427": 2799, "56,1881": 2800, "3059,1349": 2801, "863,715": 2802, "1218,1882": 2803, "1372,2093": 2804, "3063,55": 2805, "350,715": 2806, "270,108": 2807, "3066,762": 2808, "3067,103": 2809, "3068,476": 2810, "1379,1584": 2811, "448,51": 2812, "1661,779": 2813, "779,733": 2814, "676,58": 2815, "1469,541": 2816, "733,1255": 2817, "948,54": 2818, "738,59": 2819, "728,871": 2820, "340,714": 2821, "1018,448": 2822, "1350,450": 2823, "3082,2649": 2824, "926,1630": 2825, "1887,399": 2826, "2402,52": 2827, "450,458": 2828, "1888,954": 2829, "871,1572": 2830, "427,53": 2831, "3090,2353": 2832, "435,58": 2833, "432,399": 2834, "1751,350": 2835, "738,1281": 2836, "417,57": 2837, "768,1169": 2838, "948,55": 2839, "953,1123": 2840, "650,1286": 2841, "1385,1356": 2842, "1072,1574": 2843, "1286,57": 2844, "962,58": 2845, "1821,60": 2846, "1254,59": 2847, "1888,1384": 2848, "1568,59": 2849, "1444,53": 2850, "1444,1330": 2851, "2659,56": 2852, "768,1020": 2853, "58,875": 2854, "3113,1571": 2855, "1477,1345": 2856, "1455,59": 2857, "385,1998": 2858, "1474,1783": 2859, "739,53": 2860, "1293,1558": 2861, "847,552": 2862, "53,1567": 2863, "593,1470": 2864, "1325,60": 2865, "1711,1467": 2866, "3125,1905": 2867, "1255,1346": 2868, "3127,1574": 2869, "594,2021": 2870, "1016,594": 2871, "752,55": 2872, "657,56": 2873, "775,56": 2874, "1413,55": 2875, "1230,509": 2876, "826,849": 2877, "1486,60": 2878, "58,450": 2879, "1015,60": 2880, "1218,432": 2881, "713,1270": 2882, "3141,55": 2883, "691,1313": 2884, "857,779": 2885, "3144,1137": 2886, "779,923": 2887, "2663,756": 2888, "3147,1908": 2889, "848,55": 2890, "57,733": 2891, "3150,1782": 2892, "1244,949": 2893, "2429,1349": 2894, "3153,450": 2895, "1484,2223": 2896, "1289,1300": 2897, "51,967": 2898, "353,713": 2899, "876,58": 2900, "746,57": 2901, "1218,703": 2902, "1118,728": 2903, "1397,56": 2904, "740,1393": 2905, "509,891": 2906, "767,296": 2907, "435,55": 2908, "1326,1524": 2909, "1164,1543": 2910, "3169,1881": 2911, "767,108": 2912, "1162,1164": 2913, "1018,417": 2914, "873,53": 2915, "573,1217": 2916, "1555,458": 2917, "3176,1274": 2918, "1449,1018": 2919, "52,718": 2920, "3179,399": 2921, "2445,2107": 2922, "2429,1245": 2923, "1086,2446": 2924, "1495,2031": 2925, "3184,1556": 2926, "1162,1255": 2927, "951,55": 2928, "619,53": 2929, "1349,1120": 2930, "60,1300": 2931, "3190,1479": 2932, "1067,2451": 2933, "458,1580": 2934, "3193,1630": 2935, "1349,2031": 2936, "1312,1018": 2937, "2572,1294": 2938, "1605,1384": 2939, "1543,2115": 2940, "383,1313": 2941, "2331,1563": 2942, "736,59": 2943, "708,534": 2944, "1291,54": 2945, "718,415": 2946, "949,1684": 2947, "473,59": 2948, "1810,714": 2949, "3208,53": 2950, "780,1174": 2951, "1086,953": 2952, "3211,1574": 2953, "1723,541": 2954, "1192,1430": 2955, "3214,713": 2956, "1346,715": 2957, "51,1245": 2958, "3217,1770": 2959, "414,1525": 2960, "761,60": 2961, "849,58": 2962, "534,1457": 2963, "532,654": 2964, "657,52": 2965, "2692,2693": 2966, "452,1762": 2967, "2330,450": 2968, "1495,1250": 2969, "3228,2457": 2970, "1354,715": 2971, "953,1196": 2972, "972,1829": 2973, "3232,654": 2974, "702,1355": 2975, "1552,1300": 2976, "3235,1120": 2977, "1454,57": 2978, "1283,340": 2979, "2037,954": 2980, "1300,1319": 2981, "59,59": 2982, "2460,1350": 2983, "1278,1293": 2984, "3243,1331": 2985, "1340,51": 2986, "450,1496": 2987, "3246,57": 2988, "1300,2461": 2989, "333,552": 2990, "619,1913": 2991, "3250,53": 2992, "884,956": 2993, "1018,654": 2994, "1312,55": 2995, "1300,1086": 2996, "3255,353": 2997, "399,1274": 2998, "1439,53": 2999, "1248,1783": 3000, "752,1148": 3001, "2120,2705": 3002, "399,1123": 3003, "3262,1086": 3004, "1582,1233": 3005, "1508,1166": 3006, "1543,1543": 3007, "3266,1419": 3008, "1419,1605": 3009, "771,1198": 3010, "53,718": 3011, "703,51": 3012, "1477,1354": 3013, "3272,1476": 3014, "1924,1293": 3015, "340,1255": 3016, "3275,1476": 3017, "713,1888": 3018, "53,1584": 3019, "594,448": 3020, "1349,1440": 3021, "3280,1452": 3022, "1357,715": 3023, "691,463": 3024, "3283,1162": 3025, "1357,96": 3026, "509,1047": 3027, "798,1236": 3028, "1385,353": 3029, "3288,721": 3030, "1476,2124": 3031, "1342,54": 3032, "1484,2712": 3033, "415,2369": 3034, "57,718": 3035, "340,458": 3036, "3295,798": 3037, "1449,53": 3038, "926,1481": 3039, "1811,96": 3040, "448,340": 3041, "3300,1643": 3042, "972,1699": 3043, "3302,654": 3044, "760,1159": 3045, "848,108": 3046, "1262,848": 3047, "848,60": 3048, "2472,1708": 3049, "1192,1289": 3050, "3309,1422": 3051, "1312,1118": 3052, "1433,56": 3053, "450,1481": 3054, "2318,415": 3055, "3314,1495": 3056, "721,415": 3057, "3316,1166": 3058, "1662,53": 3059, "452,1125": 3060, "1433,59": 3061, "417,56": 3062, "972,58": 3063, "3322,2262": 3064, "385,1286": 3065, "1500,1372": 3066, "1020,654": 3067, "972,1762": 3068, "3327,654": 3069, "1219,417": 3070, "738,1219": 3071, "2303,1585": 3072, "353,1072": 3073, "2472,1555": 3074, "1727,53": 3075, "45,2671": 3076, "3335,297": 3077, "1067,766": 3078, "1412,56": 3079, "767,534": 3080, "427,1123": 3081, "3340,745": 3082, "779,1467": 3083, "760,60": 3084, "1372,2129": 3085, "926,715": 3086, "951,57": 3087, "1576,891": 3088, "2269,798": 3089, "1430,96": 3090, "593,756": 3091, "870,954": 3092, "3351,892": 3093, "727,1118": 3094, "59,1250": 3095, "1933,56": 3096, "863,766": 3097, "972,1448": 3098, "3357,654": 3099, "768,100": 3100, "728,1120": 3101, "1669,54": 3102, "703,845": 3103, "53,1431": 3104, "1592,715": 3105, "1350,1477": 3106, "3365,745": 3107, "768,123": 3108, "2130,2481": 3109, "55,1085": 3110, "1862,1274": 3111, "1902,60": 3112, "1021,1544": 3113, "784,55": 3114, "746,541": 3115, "950,55": 3116, "1934,1630": 3117, "1902,956": 3118, "1070,55": 3119, "435,57": 3120, "1243,1047": 3121, "926,1888": 3122, "450,1123": 3123, "1186,1545": 3124, "1605,1556": 3125, "949,715": 3126, "1255,1450": 3127, "2120,56": 3128, "2382,863": 3129, "463,1233": 3130, "1508,2272": 3131, "53,458": 3132, "1419,1072": 3133, "3392,1482": 3134, "52,891": 3135, "1527,1402": 3136, "417,1162": 3137, "849,60": 3138, "385,1568": 3139, "1281,448": 3140, "956,714": 3141, "2005,949": 3142, "2092,340": 3143, "2486,954": 3144, "56,654": 3145, "1072,718": 3146, "3405,1246": 3147, "711,534": 3148, "54,353": 3149, "432,798": 3150, "3409,1123": 3151, "738,1243": 3152, "1469,58": 3153, "1218,58": 3154, "1430,1701": 3155, "1313,58": 3156, "948,53": 3157, "1021,1148": 3158, "1312,1159": 3159, "58,364": 3160, "541,44": 3161, "60,58": 3162, "1384,1278": 3163, "3422,1485": 3164, "1485,715": 3165, "1485,96": 3166, "2490,57": 3167, "1914,450": 3168, "450,1424": 3169, "1843,1072": 3170, "863,2351": 3171, "702,113": 3172, "1108,263": 3173, "376,263": 3174, "452,1148": 3175, "708,1622": 3176, "697,96": 3177, "711,59": 3178, "1120,1287": 3179, "452,1118": 3180, "713,52": 3181, "1448,1192": 3182, "708,55": 3183, "3442,576": 3184, "780,55": 3185, "1924,458": 3186, "3445,1357": 3187, "1289,2450": 3188, "432,2134": 3189, "502,1276": 3190, "2097,118": 3191, "3450,1214": 3192, "452,1244": 3193, "1484,1120": 3194, "3453,1389": 3195, "415,1939": 3196, "1016,1174": 3197, "1486,1125": 3198, "757,2095": 3199, "752,108": 3200, "752,352": 3201, "1120,1605": 3202, "721,2129": 3203, "3462,1418": 3204, "953,1389": 3205, "3464,1563": 3206, "1148,1413": 3207, "757,96": 3208, "1986,2273": 3209, "892,2126": 3210, "1644,575": 3211, "708,1480": 3212, "1939,871": 3213, "892,1245": 3214, "3473,1430": 3215, "826,767": 3216, "771,56": 3217, "2497,1552": 3218, "59,2766": 3219, "771,296": 3220, "55,891": 3221, "2635,1905": 3222, "2445,1255": 3223, "1589,871": 3224, "353,448": 3225, "594,871": 3226, "1218,2501": 3227, "415,1440": 3228, "722,1169": 3229, "752,594": 3230, "1418,892": 3231, "3490,1711": 3232, "463,1244": 3233, "1486,838": 3234, "1489,60": 3235, "1474,52": 3236, "450,2506": 3237, "771,1257": 3238, "51,44": 3239, "1325,871": 3240, "767,57": 3241, "2507,42": 3242, "1707,714": 3243, "3502,59": 3244, "972,1159": 3245, "3504,654": 3246, "745,728": 3247, "3506,892": 3248, "848,123": 3249, "721,1287": 3250, "718,714": 3251, "3510,713": 3252, "56,399": 3253, "3512,1419": 3254, "399,2510": 3255, "432,1192": 3256, "444,1252": 3257, "333,534": 3258, "702,1174": 3259, "745,1688": 3260, "728,353": 3261, "761,534": 3262, "1916,1291": 3263, "3522,58": 3264, "1283,52": 3265, "1245,2043": 3266, "2785,1389": 3267, "1384,713": 3268, "1169,1047": 3269, "580,567": 3270, "1422,1123": 3271, "1669,53": 3272, "2690,1255": 3273, "476,113": 3274, "3533,300": 3275, "98,98": 3276, "49,49": 3277, "2794,2515": 3278, "2788,43": 3279, "2789,281": 3280, "87,114": 3281, "3540,112": 3282, "1017,44": 3283, "3542,13": 3284, "80,867": 3285, "49,2517": 3286, "3545,262": 3287, "797,114": 3288, "3547,826": 3289, "2523,42": 3290, "2151,70": 3291, "1015,55": 3292, "1021,1945": 3293, "1346,60": 3294, "1384,2124": 3295, "1385,59": 3296, "3555,2064": 3297, "1400,58": 3298, "2115,415": 3299, "703,1552": 3300, "1192,448": 3301, "3560,766": 3302, "2245,59": 3303, "1255,1452": 3304, "2292,1123": 3305, "1239,472": 3306, "2524,1552": 3307, "1467,715": 3308, "415,1330": 3309, "1300,2093": 3310, "3569,56": 3311, "847,123": 3312, "745,450": 3313, "1125,654": 3314, "54,713": 3315, "619,52": 3316, "415,2292": 3317, "3576,1372": 3318, "1431,1431": 3319, "1537,60": 3320, "926,415": 3321, "3580,1086": 3322, "2698,1646": 3323, "1430,1123": 3324, "262,2526": 3325, "55,714": 3326, "3585,926": 3327, "56,728": 3328, "1021,2296": 3329, "1924,52": 3330, "415,1350": 3331, "3590,1389": 3332, "1580,715": 3333, "1662,1243": 3334, "903,58": 3335, "2358,2119": 3336, "1965,2196": 3337, "619,2263": 3338, "57,340": 3339, "767,56": 3340, "798,2810": 3341, "1400,56": 3342, "953,2477": 3343, "746,100": 3344, "2089,1476": 3345, "1576,44": 3346, "728,1571": 3347, "3606,1246": 3348, "1913,55": 3349, "2784,415": 3350, "2134,721": 3351, "2104,51": 3352, "1413,59": 3353, "2528,534": 3354, "2647,53": 3355, "972,1470": 3356, "3615,654": 3357, "57,1357": 3358, "3617,1350": 3359, "1449,1148": 3360, "1348,1442": 3361, "53,432": 3362, "3621,721": 3363, "1571,1556": 3364, "2817,1979": 3365, "2422,56": 3366, "1879,53": 3367, "428,891": 3368, "663,58": 3369, "1870,891": 3370, "552,871": 3371, "428,713": 3372, "399,353": 3373, "2482,96": 3374, "706,58": 3375, "784,54": 3376, "448,745": 3377, "1331,1946": 3378, "733,745": 3379, "703,871": 3380, "2160,714": 3381, "972,1544": 3382, "3641,654": 3383, "745,870": 3384, "1555,1737": 3385, "3644,1563": 3386, "1164,415": 3387, "1070,59": 3388, "775,1379": 3389, "884,1257": 3390, "1021,1257": 3391, "2143,458": 3392, "60,60": 3393, "1072,450": 3394, "3653,1274": 3395, "593,2443": 3396, "1125,1331": 3397, "1440,1350": 3398, "3657,1495": 3399, "399,1746": 3400, "58,53": 3401, "848,296": 3402, "848,57": 3403, "1312,1252": 3404, "779,364": 3405, "2101,118": 3406, "2833,718": 3407, "713,728": 3408, "3667,1192": 3409, "1218,60": 3410, "2545,1485": 3411, "1662,52": 3412, "490,400": 3413, "56,875": 3414, "2618,415": 3415, "340,733": 3416, "3675,721": 3417, "1067,350": 3418, "722,55": 3419, "1632,56": 3420, "417,116": 3421, "972,2098": 3422, "1934,954": 3423, "592,1575": 3424, "2428,53": 3425, "766,892": 3426, "1283,59": 3427, "766,415": 3428, "3687,1278": 3429, "798,715": 3430, "1086,2271": 3431, "1331,875": 3432, "1556,2533": 3433, "1123,53": 3434, "399,1067": 3435, "722,60": 3436, "1166,58": 3437, "3696,871": 3438, "541,450": 3439, "575,450": 3440, "2837,1231": 3441, "1349,1086": 3442, "495,1286": 3443, "59,1316": 3444, "1154,471": 3445, "728,2524": 3446, "650,1830": 3447, "926,875": 3448, "1802,448": 3449, "718,1345": 3450, "849,1097": 3451, "728,1862": 3452, "3711,51": 3453, "1770,953": 3454, "567,2425": 3455, "766,2460": 3456, "1559,44": 3457, "452,1576": 3458, "722,108": 3459, "697,2842": 3460, "871,1123": 3461, "972,1557": 3462, "3721,654": 3463, "875,949": 3464, "3723,875": 3465, "340,1120": 3466, "3725,721": 3467, "1385,55": 3468, "3727,432": 3469, "3728,703": 3470, "59,2843": 3471, "2418,57": 3472, "1496,2844": 3473, "1556,1372": 3474, "768,55": 3475, "775,1018": 3476, "1278,1422": 3477, "573,1713": 3478, "1218,458": 3479, "1474,472": 3480, "333,1233": 3481, "1178,471": 3482, "760,1233": 3483, "340,415": 3484, "3743,713": 3485, "714,953": 3486, "950,1243": 3487, "838,58": 3488, "1667,733": 3489, "2745,2233": 3490, "52,1457": 3491, "775,1125": 3492, "450,1528": 3493, "3752,52": 3494, "718,2126": 3495, "2711,2093": 3496, "58,1431": 3497, "1123,1430": 3498, "3757,1350": 3499, "728,728": 3500, "3759,350": 3501, "350,509": 3502, "2109,863": 3503, "1467,353": 3504, "3763,458": 3505, "721,715": 3506, "59,1289": 3507, "3766,1556": 3508, "1420,718": 3509, "1400,721": 3510, "1582,1148": 3511, "1385,60": 3512, "3771,1881": 3513, "1572,1686": 3514, "1828,953": 3515, "721,714": 3516, "721,1424": 3517, "444,1821": 3518, "656,567": 3519, "1416,51": 3520, "448,2319": 3521, "444,1978": 3522, "1245,399": 3523, "3782,2849": 3524, "1844,399": 3525, "1120,353": 3526, "2510,350": 3527, "1528,1274": 3528, "2301,863": 3529, "452,779": 3530, "2481,863": 3531, "1117,1420": 3532, "3791,364": 3533, "3792,501": 3534, "1169,654": 3535, "745,1319": 3536, "2537,458": 3537, "2130,1424": 3538, "399,1555": 3539, "3798,1630": 3540, "714,2380": 3541, "59,1385": 3542, "3801,2399": 3543, "754,59": 3544, "1015,54": 3545, "892,1289": 3546, "3805,415": 3547, "589,567": 3548, "718,1954": 3549, "450,1828": 3550, "399,1939": 3551, "1321,53": 3552, "2272,728": 3553, "1319,715": 3554, "2594,1482": 3555, "1357,1749": 3556, "1556,1418": 3557, "3816,1708": 3558, "415,1961": 3559, "2539,954": 3560, "2611,1385": 3561, "3820,1524": 3562, "2719,2285": 3563, "745,2778": 3564, "56,415": 3565, "1567,863": 3566, "1372,353": 3567, "3826,2107": 3568, "399,1946": 3569, "2360,875": 3570, "2622,432": 3571, "2531,1882": 3572, "1551,1331": 3573, "3832,1349": 3574, "1018,891": 3575, "877,2037": 3576, "1349,1331": 3577, "3836,1384": 3578, "1196,1287": 3579, "714,353": 3580, "575,714": 3581, "57,1468": 3582, "3841,1552": 3583, "1592,1350": 3584, "1433,57": 3585, "1230,1448": 3586, "1563,2071": 3587, "1278,1278": 3588, "3847,1495": 3589, "1248,1274": 3590, "1474,56": 3591, "3850,949": 3592, "1477,2344": 3593, "432,1634": 3594, "1986,870": 3595, "1477,1452": 3596, "1708,1293": 3597, "3856,863": 3598, "1495,1737": 3599, "1233,892": 3600, "3859,54": 3601, "2497,1418": 3602, "745,1905": 3603, "3862,432": 3604, "2541,1192": 3605, "953,1072": 3606, "3865,1072": 3607, "721,1350": 3608, "3867,1293": 3609, "884,1084": 3610, "2345,450": 3611, "3870,1300": 3612, "1485,1832": 3613, "768,60": 3614, "758,58": 3615, "950,1559": 3616, "871,953": 3617, "2534,1476": 3618, "1021,1829": 3619, "448,1422": 3620, "3879,450": 3621, "1668,53": 3622, "1278,340": 3623, "3882,1217": 3624, "1389,2542": 3625, "714,1245": 3626, "414,1286": 3627, "1248,59": 3628, "1270,54": 3629, "448,1270": 3630, "3889,60": 3631, "778,59": 3632, "3891,733": 3633, "949,713": 3634, "3893,926": 3635, "2532,1543": 3636, "718,1072": 3637, "3896,1245": 3638, "2162,1484": 3639, "691,1453": 3640, "758,296": 3641, "758,541": 3642, "1480,1419": 3643, "1125,713": 3644, "708,575": 3645, "1384,1580": 3646, "415,1482": 3647, "3906,415": 3648, "1120,1547": 3649, "427,2166": 3650, "757,56": 3651, "1811,53": 3652, "1250,1278": 3653, "3912,1468": 3654, "353,450": 3655, "1289,1291": 3656, "2533,1245": 3657, "463,509": 3658, "2031,1250": 3659, "3918,1072": 3660, "1479,1571": 3661, "2828,340": 3662, "1449,55": 3663, "714,1270": 3664, "3923,53": 3665, "2066,713": 3666, "1439,2453": 3667, "2446,1120": 3668, "733,1633": 3669, "721,2145": 3670, "1196,1354": 3671, "2302,1783": 3672, "951,54": 3673, "2120,1217": 3674, "3933,432": 3675, "1245,1708": 3676, "1123,2043": 3677, "3936,871": 3678, "771,57": 3679, "767,58": 3680, "745,1270": 3681, "2461,1192": 3682, "1431,871": 3683, "1476,713": 3684, "1357,1294": 3685, "1192,1123": 3686, "1939,399": 3687, "2739,766": 3688, "1346,1580": 3689, "417,1148": 3690, "1278,949": 3691, "3950,415": 3692, "713,350": 3693, "2144,353": 3694, "1821,55": 3695, "1607,594": 3696, "2486,1246": 3697, "1524,2544": 3698, "2381,1120": 3699, "2115,1086": 3700, "545,1537": 3701, "2143,949": 3702, "2164,353": 3703, "552,1711": 3704, "1909,892": 3705, "1192,733": 3706, "444,2050": 3707, "1422,1250": 3708, "3967,728": 3709, "1838,353": 3710, "3969,509": 3711, "2208,1710": 3712, "746,552": 3713, "415,2119": 3714, "1123,718": 3715, "3974,1831": 3716, "1419,1946": 3717, "59,1287": 3718, "1245,353": 3719, "1489,53": 3720, "432,1385": 3721, "3980,1166": 3722, "3981,60": 3723, "1293,1737": 3724, "3983,1350": 3725, "340,766": 3726, "1164,448": 3727, "3986,870": 3728, "2731,1086": 3729, "448,1164": 3730, "3989,353": 3731, "1018,1627": 3732, "1018,432": 3733, "1321,51": 3734, "509,745": 3735, "1018,1924": 3736, "1176,471": 3737, "1439,54": 3738, "2302,60": 3739, "1123,863": 3740, "59,1350": 3741, "4000,1479": 3742, "1430,1250": 3743, "711,55": 3744, "2295,713": 3745, "1547,1330": 3746, "1196,353": 3747, "4006,350": 3748, "1239,757": 3749, "2423,415": 3750, "1072,1067": 3751, "4010,1419": 3752, "415,2129": 3753, "4012,2542": 3754, "399,1233": 3755, "458,953": 3756, "4015,1440": 3757, "450,432": 3758, "953,1270": 3759, "1289,1477": 3760, "4019,1349": 3761, "1440,2544": 3762, "863,1357": 3763, "4022,1086": 3764, "1331,2856": 3765, "2301,399": 3766, "2525,1255": 3767, "353,728": 3768, "4027,1452": 3769, "1669,472": 3770, "2384,1485": 3771, "1484,1354": 3772, "863,1828": 3773, "53,875": 3774, "718,2540": 3775, "697,1072": 3776, "721,1763": 3777, "892,2295": 3778, "1159,1255": 3779, "1044,2557": 3780, "1831,1555": 3781, "4040,1384": 3782, "1630,1350": 3783, "2430,1349": 3784, "1551,1389": 3785, "4044,1072": 3786, "399,1018": 3787, "728,1164": 3788, "4047,1192": 3789, "1528,1882": 3790, "1416,53": 3791, "1551,450": 3792, "4051,415": 3793, "728,1086": 3794, "4053,870": 3795, "450,954": 3796, "4055,733": 3797, "2582,926": 3798, "745,353": 3799, "4058,353": 3800, "884,541": 3801, "415,1319": 3802, "4061,1770": 3803, "1164,728": 3804, "2107,766": 3805, "2001,399": 3806, "4065,1118": 3807, "1245,1554": 3808, "1431,2545": 3809, "56,2861": 3810, "1431,1289": 3811, "4070,1771": 3812, "1838,1627": 3813, "4072,57": 3814, "760,1838": 3815, "2873,1558": 3816, "780,296": 3817, "780,1097": 3818, "54,2310": 3819, "780,1522": 3820, "1486,2557": 3821, "849,2558": 3822, "838,2560": 3823, "1559,2313": 3824, "838,1044": 3825, "4084,1628": 3826, "1230,1715": 3827, "752,1379": 3828, "2882,863": 3829, "1662,1257": 3830, "2882,1782": 3831, "1843,1439": 3832, "57,1270": 3833, "4092,1783": 3834, "417,1281": 3835, "771,1162": 3836, "1522,417": 3837, "4096,1379": 3838, "1522,1440": 3839, "589,1525": 3840, "2315,1231": 3841, "1950,954": 3842, "972,473": 3843, "4102,654": 3844, "2061,954": 3845, "2888,42": 3846, "2556,81": 3847, "676,51": 3848, "1312,1522": 3849, "2891,2566": 3850, "711,1522": 3851, "738,1169": 3852, "739,1244": 3853, "1410,736": 3854, "736,56": 3855, "1329,2897": 3856, "541,2897": 3857, "2062,107": 3858, "1632,1257": 3859, "2319,1598": 3860, "1462,60": 3861, "849,1251": 3862, "849,1667": 3863, "414,1453": 3864, "450,1399": 3865, "452,594": 3866, "702,108": 3867, "1262,702": 3868, "849,1169": 3869, "1243,2912": 3870, "824,57": 3871, "972,1494": 3872, "4131,654": 3873, "400,2063": 3874, "1633,1468": 3875, "1535,1960": 3876, "953,715": 3877, "1852,1496": 3878, "722,1420": 3879, "1853,1231": 3880, "1964,432": 3881, "1669,55": 3882, "333,541": 3883, "903,541": 3884, "1788,2579": 3885, "385,2063": 3886, "2579,350": 3887, "1966,1444": 3888, "2066,1316": 3889, "1723,52": 3890, "2165,1598": 3891, "738,123": 3892, "738,365": 3893, "875,1120": 3894, "580,2069": 3895, "875,1967": 3896, "2937,2341": 3897, "2166,96": 3898, "876,1244": 3899, "580,2589": 3900, "2345,2946": 3901, "657,108": 3902, "657,1198": 3903, "754,2346": 3904, "452,1169": 3905, "1470,2950": 3906, "383,1727": 3907, "2350,56": 3908, "657,1125": 3909, "1353,2594": 3910, "1978,60": 3911, "2174,766": 3912, "746,1219": 3913, "926,59": 3914, "876,2960": 3915, "383,1286": 3916, "745,1979": 3917, "711,1544": 3918, "57,2310": 3919, "849,2074": 3920, "1632,1982": 3921, "1507,49": 3922, "2969,42": 3923, "2179,70": 3924, "1983,779": 3925, "775,52": 3926, "452,1535": 3927, "2973,1198": 3928, "4187,44": 3929, "736,1355": 3930, "4189,745": 3931, "408,124": 3932, "686,1869": 3933, "771,51": 3934, "435,1159": 3935, "2350,55": 3936, "1325,2603": 3937, "56,2603": 3938, "4197,1684": 3939, "711,296": 3940, "1401,51": 3941, "2189,2560": 3942, "2981,432": 3943, "2981,1272": 3944, "1508,1986": 3945, "2360,1424": 3946, "928,1198": 3947, "713,55": 3948, "2983,432": 3949, "2983,1272": 3950, "2598,745": 3951, "2361,55": 3952, "1462,2192": 3953, "752,1576": 3954, "849,1379": 3955, "1342,52": 3956, "1607,2192": 3957, "950,54": 3958, "435,1990": 3959, "711,1990": 3960, "2992,96": 3961, "727,1559": 3962, "567,2996": 3963, "444,2611": 3964, "4223,1291": 3965, "1016,59": 3966, "1873,56": 3967, "2195,779": 3968, "1267,1661": 3969, "736,53": 3970, "4229,745": 3971, "972,1420": 3972, "4231,654": 3973, "96,875": 3974, "2369,714": 3975, "2369,1424": 3976, "2618,718": 3977, "752,779": 3978, "3008,2196": 3979, "848,54": 3980, "2371,57": 3981, "928,552": 3982, "4241,458": 3983, "2195,60": 3984, "754,1084": 3985, "1668,52": 3986, "1326,51": 3987, "657,671": 3988, "1582,1356": 3989, "876,2189": 3990, "730,1018": 3991, "746,60": 3992, "1420,417": 3993, "4252,575": 3994, "775,1420": 3995, "2621,399": 3996, "745,3017": 3997, "738,1379": 3998, "722,2074": 3999, "2624,1402": 4000, "1218,1643": 4001, "1321,55": 4002, "2626,1551": 4003, "657,59": 4004, "1230,1535": 4005, "736,1810": 4006, "873,1420": 4007, "1810,3026": 4008, "1644,1243": 4009, "444,1018": 4010, "4269,399": 4011, "4270,340": 4012, "1166,472": 4013, "1547,60": 4014, "383,1638": 4015, "1547,2202": 4016, "1538,3032": 4017, "1355,1627": 4018, "4277,60": 4019, "873,1355": 4020, "767,1251": 4021, "1251,364": 4022, "4281,109": 4023, "4282,262": 4024, "4283,352": 4025, "469,109": 4026, "108,335": 4027, "848,100": 4028, "1284,848": 4029, "2382,745": 4030, "546,2061": 4031, "2174,458": 4032, "1474,53": 4033, "1469,1355": 4034, "950,2633": 4035, "847,300": 4036, "435,1084": 4037, "1084,875": 4038, "903,1448": 4039, "2357,2196": 4040, "2090,1563": 4041, "2635,926": 4042, "3040,954": 4043, "3041,1274": 4044, "1312,54": 4045, "4304,749": 4046, "436,1379": 4047, "4306,2386": 4048, "4307,2636": 4049, "722,1243": 4050, "727,59": 4051, "798,875": 4052, "798,1633": 4053, "1538,697": 4054, "4313,1274": 4055, "2637,1402": 4056, "400,1525": 4057, "730,2092": 4058, "1283,745": 4059, "4318,415": 4060, "57,745": 4061, "4320,1992": 4062, "1991,892": 4063, "2361,1125": 4064, "1454,55": 4065, "450,1500": 4066, "1510,1686": 4067, "580,2640": 4068, "1411,903": 4069, "903,55": 4070, "754,1118": 4071, "873,55": 4072, "2391,534": 4073, "950,1159": 4074, "1354,1746": 4075, "56,1413": 4076, "711,1118": 4077, "3070,51": 4078, "767,1136": 4079, "761,53": 4080, "2642,1072": 4081, "580,2063": 4082, "1966,949": 4083, "1246,1450": 4084, "3073,1883": 4085, "748,100": 4086, "1284,748": 4087, "748,60": 4088, "1401,2001": 4089, "60,1476": 4090, "708,57": 4091, "4350,576": 4092, "928,501": 4093, "2195,956": 4094, "2163,55": 4095, "2209,1982": 4096, "771,956": 4097, "1159,3076": 4098, "1867,1646": 4099, "884,1535": 4100, "593,1356": 4101, "3079,714": 4102, "956,3079": 4103, "1644,552": 4104, "3080,458": 4105, "1538,757": 4106, "4365,949": 4107, "745,1554": 4108, "1018,1584": 4109, "452,1252": 4110, "873,1448": 4111, "1015,2399": 4112, "2648,55": 4113, "736,509": 4114, "385,2400": 4115, "3084,96": 4116, "1497,1192": 4117, "415,1479": 4118, "1192,2579": 4119, "4378,1274": 4120, "1469,1715": 4121, "928,1148": 4122, "2014,3087": 4123, "463,1148": 4124, "1852,1572": 4125, "775,1097": 4126, "775,54": 4127, "761,100": 4128, "761,300": 4129, "761,58": 4130, "767,1195": 4131, "767,53": 4132, "3093,718": 4133, "3093,1399": 4134, "2404,714": 4135, "432,1647": 4136, "760,100": 4137, "760,1355": 4138, "58,2211": 4139, "767,1233": 4140, "619,1742": 4141, "2409,1192": 4142, "2096,1479": 4143, "708,1281": 4144, "1021,58": 4145, "768,594": 4146, "1169,1294": 4147, "4406,55": 4148, "619,1257": 4149, "1814,1646": 4150, "385,1575": 4151, "1270,1274": 4152, "760,2092": 4153, "1321,59": 4154, "435,1355": 4155, "657,1355": 4156, "2417,1402": 4157, "2418,53": 4158, "761,563": 4159, "1607,1243": 4160, "1397,49": 4161, "1348,1840": 4162, "1902,534": 4163, "1982,1327": 4164, "1982,353": 4165, "567,2419": 4166, "1449,2421": 4167, "2422,59": 4168, "1353,2423": 4169, "1449,52": 4170, "2423,1541": 4171, "1538,766": 4172, "4431,1294": 4173, "928,1118": 4174, "619,1118": 4175, "573,1020": 4176, "752,123": 4177, "752,365": 4178, "657,123": 4179, "731,657": 4180, "1262,775": 4181, "408,101": 4182, "2569,3134": 4183, "2424,3134": 4184, "775,1494": 4185, "928,3138": 4186, "722,57": 4187, "1489,54": 4188, "1267,1401": 4189, "2662,52": 4190, "1647,766": 4191, "371,1453": 4192, "3152,55": 4193, "657,1559": 4194, "546,1537": 4195, "2648,52": 4196, "2666,458": 4197, "1162,3156": 4198, "2666,1648": 4199, "1412,54": 4200, "950,1125": 4201, "775,2430": 4202, "1462,1148": 4203, "1821,52": 4204, "950,1252": 4205, "1417,55": 4206, "4465,1231": 4207, "1828,875": 4208, "1462,59": 4209, "775,1544": 4210, "4469,432": 4211, "2435,399": 4212, "2435,1541": 4213, "444,59": 4214, "4473,1547": 4215, "4474,59": 4216, "3161,57": 4217, "703,2225": 4218, "4477,845": 4219, "452,1162": 4220, "1672,52": 4221, "1396,2671": 4222, "359,471": 4223, "767,1494": 4224, "1254,2226": 4225, "738,1400": 4226, "2226,1399": 4227, "2105,2621": 4228, "1757,417": 4229, "4488,2227": 4230, "748,1757": 4231, "727,1480": 4232, "452,956": 4233, "4492,1646": 4234, "1582,59": 4235, "1524,1372": 4236, "1662,1148": 4237, "825,2443": 4238, "4497,55": 4239, "767,1522": 4240, "722,1221": 4241, "3173,534": 4242, "2322,1231": 4243, "950,541": 4244, "718,715": 4245, "1250,714": 4246, "1250,1424": 4247, "1412,59": 4248, "2228,1402": 4249, "1469,1713": 4250, "1070,2192": 4251, "779,2450": 4252, "2371,2109": 4253, "761,552": 4254, "1016,100": 4255, "1016,1148": 4256, "748,1020": 4257, "1505,53": 4258, "748,1557": 4259, "428,3189": 4260, "1695,53": 4261, "605,1453": 4262, "2197,57": 4263, "1117,1448": 4264, "4523,2232": 4265, "4524,55": 4266, "4525,44": 4267, "780,1018": 4268, "1400,3197": 4269, "417,534": 4270, "748,838": 4271, "1814,2116": 4272, "1313,703": 4273, "3202,58": 4274, "702,55": 4275, "4534,399": 4276, "1505,57": 4277, "722,100": 4278, "722,534": 4279, "738,1198": 4280, "1607,779": 4281, "3205,448": 4282, "1444,55": 4283, "761,2421": 4284, "2117,1249": 4285, "4544,53": 4286, "1662,1162": 4287, "573,1913": 4288, "57,1584": 4289, "4548,52": 4290, "1887,57": 4291, "1650,56": 4292, "1401,2018": 4293, "849,1174": 4294, "3222,541": 4295, "1312,56": 4296, "2891,2386": 4297, "4556,927": 4298,
[...]
